{
  "version": "1.0",
  "truncation": null,
  "padding": null,
  "added_tokens": [
    {
      "id": 0,
      "content": "[UNK]",
      "single_word": false,
      "lstrip": false,
      "rstrip": false,
      "normalized": false,
      "special": true
    },
    {
      "id": 1,
      "content": "[CLS]",
      "single_word": false,
      "lstrip": false,
      "rstrip": false,
      "normalized": false,
      "special": true
    },
    {
      "id": 2,
      "content": "[SEP]",
      "single_word": false,
      "lstrip": false,
      "rstrip": false,
      "normalized": false,
      "special": true
    },
    {
      "id": 3,
      "content": "[PAD]",
      "single_word": false,
      "lstrip": false,
      "rstrip": false,
      "normalized": false,
      "special": true
    },
    {
      "id": 4,
      "content": "[MASK]",
      "single_word": false,
      "lstrip": false,
      "rstrip": false,
      "normalized": false,
      "special": true
    }
  ],
  "normalizer": null,
  "pre_tokenizer": {
    "type": "Whitespace"
  },
  "post_processor": null,
  "decoder": null,
  "model": {
    "type": "BPE",
    "dropout": null,
    "unk_token": "[UNK]",
    "continuing_subword_prefix": null,
    "end_of_word_suffix": null,
    "fuse_unk": false,
    "byte_fallback": false,
    "vocab": {
      "[UNK]": 0,
      "[CLS]": 1,
      "[SEP]": 2,
      "[PAD]": 3,
      "[MASK]": 4,
      "!": 5,
      "\"": 6,
      "#": 7,
      "$": 8,
      "%": 9,
      "&": 10,
      "'": 11,
      "(": 12,
      ")": 13,
      "*": 14,
      "+": 15,
      ",": 16,
      "-": 17,
      ".": 18,
      "/": 19,
      ":": 20,
      ";": 21,
      "<": 22,
      "=": 23,
      ">": 24,
      "?": 25,
      "@": 26,
      "[": 27,
      "\\": 28,
      "]": 29,
      "_": 30,
      "`": 31,
      "{": 32,
      "|": 33,
      "}": 34,
      "~": 35,
      "¢": 36,
      "£": 37,
      "¤": 38,
      "©": 39,
      "«": 40,
      "­": 41,
      "°": 42,
      "²": 43,
      "´": 44,
      "·": 45,
      "¹": 46,
      "»": 47,
      "Á": 48,
      "Ç": 49,
      "É": 50,
      "Í": 51,
      "Ó": 52,
      "×": 53,
      "á": 54,
      "â": 55,
      "ã": 56,
      "æ": 57,
      "ç": 58,
      "è": 59,
      "é": 60,
      "í": 61,
      "ï": 62,
      "ð": 63,
      "ñ": 64,
      "ó": 65,
      "õ": 66,
      "÷": 67,
      "ú": 68,
      "ü": 69,
      "þ": 70,
      "ā": 71,
      "Đ": 72,
      "đ": 73,
      "ē": 74,
      "ĩ": 75,
      "Ī": 76,
      "ī": 77,
      "ń": 78,
      "ŋ": 79,
      "ō": 80,
      "œ": 81,
      "ŕ": 82,
      "Ś": 83,
      "ś": 84,
      "Š": 85,
      "š": 86,
      "Ŧ": 87,
      "ŧ": 88,
      "ū": 89,
      "ů": 90,
      "Ź": 91,
      "ź": 92,
      "ž": 93,
      "ƿ": 94,
      "ǵ": 95,
      "ȝ": 96,
      "ə": 97,
      "ɬ": 98,
      "ʔ": 99,
      "ʻ": 100,
      "ː": 101,
      "˝": 102,
      "́": 103,
      "̃": 104,
      "̄": 105,
      "̣": 106,
      "̤": 107,
      "̱": 108,
      "·": 109,
      "Ё": 110,
      "Б": 111,
      "В": 112,
      "Г": 113,
      "Е": 114,
      "З": 115,
      "К": 116,
      "Н": 117,
      "О": 118,
      "П": 119,
      "С": 120,
      "Ц": 121,
      "Э": 122,
      "а": 123,
      "б": 124,
      "в": 125,
      "г": 126,
      "д": 127,
      "е": 128,
      "ж": 129,
      "з": 130,
      "и": 131,
      "й": 132,
      "к": 133,
      "л": 134,
      "м": 135,
      "н": 136,
      "о": 137,
      "п": 138,
      "р": 139,
      "с": 140,
      "т": 141,
      "у": 142,
      "ц": 143,
      "ч": 144,
      "ш": 145,
      "щ": 146,
      "ы": 147,
      "ь": 148,
      "ю": 149,
      "я": 150,
      "ё": 151,
      "ד": 152,
      "ו": 153,
      "ח": 154,
      "מ": 155,
      "؁": 156,
      "؂": 157,
      "،": 158,
      "؍": 159,
      "؎": 160,
      "ؐ": 161,
      "ؑ": 162,
      "ؒ": 163,
      "ؓ": 164,
      "ؔ": 165,
      "ؕ": 166,
      "؛": 167,
      "؟": 168,
      "ء": 169,
      "آ": 170,
      "أ": 171,
      "ؤ": 172,
      "إ": 173,
      "ئ": 174,
      "ا": 175,
      "ب": 176,
      "ة": 177,
      "ت": 178,
      "ث": 179,
      "ج": 180,
      "ح": 181,
      "خ": 182,
      "د": 183,
      "ذ": 184,
      "ر": 185,
      "ز": 186,
      "س": 187,
      "ش": 188,
      "ص": 189,
      "ض": 190,
      "ط": 191,
      "ظ": 192,
      "ع": 193,
      "غ": 194,
      "ـ": 195,
      "ف": 196,
      "ق": 197,
      "ك": 198,
      "ل": 199,
      "م": 200,
      "ن": 201,
      "ه": 202,
      "و": 203,
      "ى": 204,
      "ي": 205,
      "ً": 206,
      "ٌ": 207,
      "ٍ": 208,
      "َ": 209,
      "ُ": 210,
      "ِ": 211,
      "ّ": 212,
      "ْ": 213,
      "ٓ": 214,
      "ٔ": 215,
      "ٕ": 216,
      "ٖ": 217,
      "ٗ": 218,
      "٘": 219,
      "ٙ": 220,
      "ٚ": 221,
      "ٛ": 222,
      "ٝ": 223,
      "٠": 224,
      "١": 225,
      "٢": 226,
      "٣": 227,
      "٤": 228,
      "٥": 229,
      "٦": 230,
      "٧": 231,
      "٨": 232,
      "٩": 233,
      "٪": 234,
      "٫": 235,
      "٭": 236,
      "ٰ": 237,
      "ٱ": 238,
      "ٴ": 239,
      "ٶ": 240,
      "ٸ": 241,
      "ٹ": 242,
      "ٻ": 243,
      "ټ": 244,
      "پ": 245,
      "ځ": 246,
      "ڃ": 247,
      "ڄ": 248,
      "څ": 249,
      "چ": 250,
      "ڈ": 251,
      "ڊ": 252,
      "ڏ": 253,
      "ڑ": 254,
      "ژ": 255,
      "ښ": 256,
      "ڥ": 257,
      "ک": 258,
      "ګ": 259,
      "گ": 260,
      "ڰ": 261,
      "ڱ": 262,
      "ڳ": 263,
      "ڷ": 264,
      "ں": 265,
      "ھ": 266,
      "ہ": 267,
      "ۂ": 268,
      "ۃ": 269,
      "ۆ": 270,
      "ۉ": 271,
      "ی": 272,
      "ۍ": 273,
      "ێ": 274,
      "ۏ": 275,
      "ې": 276,
      "ے": 277,
      "ۓ": 278,
      "۔": 279,
      "۟": 280,
      "ۡ": 281,
      "ۤ": 282,
      "۫": 283,
      "ۯ": 284,
      "۰": 285,
      "۱": 286,
      "۲": 287,
      "۳": 288,
      "۴": 289,
      "۵": 290,
      "۶": 291,
      "۷": 292,
      "۸": 293,
      "۹": 294,
      "द": 295,
      "म": 296,
      "ह": 297,
      "ु": 298,
      "्": 299,
      "ḍ": 300,
      "ḏ": 301,
      "ḥ": 302,
      "ḷ": 303,
      "ṇ": 304,
      "ṉ": 305,
      "ṛ": 306,
      "ṟ": 307,
      "ṣ": 308,
      "ṭ": 309,
      "ẓ": 310,
      "​": 311,
      "‌": 312,
      "‍": 313,
      "‎": 314,
      "‏": 315,
      "–": 316,
      "—": 317,
      "―": 318,
      "‘": 319,
      "’": 320,
      "“": 321,
      "”": 322,
      "„": 323,
      "•": 324,
      "…": 325,
      "‫": 326,
      "‬": 327,
      "″": 328,
      "※": 329,
      "⇦": 330,
      "⇩": 331,
      "√": 332,
      "∴": 333,
      "∵": 334,
      "═": 335,
      "▬": 336,
      "◆": 337,
      "●": 338,
      "★": 339,
      "☆": 340,
      "♡": 341,
      "♢": 342,
      "⛅": 343,
      "✅": 344,
      "✌": 345,
      "✍": 346,
      "✏": 347,
      "✒": 348,
      "✗": 349,
      "✘": 350,
      "✨": 351,
      "❀": 352,
      "❊": 353,
      "❎": 354,
      "❤": 355,
      "。": 356,
      "ジ": 357,
      "ﭖ": 358,
      "ﭗ": 359,
      "ﭘ": 360,
      "ﭙ": 361,
      "ﭦ": 362,
      "ﭧ": 363,
      "ﭨ": 364,
      "ﭩ": 365,
      "ﭺ": 366,
      "ﭻ": 367,
      "ﭼ": 368,
      "ﭽ": 369,
      "ﮈ": 370,
      "ﮉ": 371,
      "ﮊ": 372,
      "ﮋ": 373,
      "ﮌ": 374,
      "ﮍ": 375,
      "ﮎ": 376,
      "ﮏ": 377,
      "ﮐ": 378,
      "ﮑ": 379,
      "ﮒ": 380,
      "ﮓ": 381,
      "ﮔ": 382,
      "ﮕ": 383,
      "ﮞ": 384,
      "ﮟ": 385,
      "ﮦ": 386,
      "ﮧ": 387,
      "ﮨ": 388,
      "ﮩ": 389,
      "ﮪ": 390,
      "ﮫ": 391,
      "ﮬ": 392,
      "ﮭ": 393,
      "ﮮ": 394,
      "ﮯ": 395,
      "ﮰ": 396,
      "ﮱ": 397,
      "ﯼ": 398,
      "ﯽ": 399,
      "ﯾ": 400,
      "ﯿ": 401,
      "﴾": 402,
      "﴿": 403,
      "ﷲ": 404,
      "ﷺ": 405,
      "️": 406,
      "ﹶ": 407,
      "ﹸ": 408,
      "ﹺ": 409,
      "ﺀ": 410,
      "ﺁ": 411,
      "ﺃ": 412,
      "ﺅ": 413,
      "ﺆ": 414,
      "ﺇ": 415,
      "ﺊ": 416,
      "ﺋ": 417,
      "ﺌ": 418,
      "ﺍ": 419,
      "ﺎ": 420,
      "ﺏ": 421,
      "ﺐ": 422,
      "ﺑ": 423,
      "ﺒ": 424,
      "ﺕ": 425,
      "ﺖ": 426,
      "ﺗ": 427,
      "ﺘ": 428,
      "ﺙ": 429,
      "ﺛ": 430,
      "ﺜ": 431,
      "ﺝ": 432,
      "ﺞ": 433,
      "ﺟ": 434,
      "ﺠ": 435,
      "ﺡ": 436,
      "ﺢ": 437,
      "ﺣ": 438,
      "ﺤ": 439,
      "ﺥ": 440,
      "ﺦ": 441,
      "ﺧ": 442,
      "ﺨ": 443,
      "ﺩ": 444,
      "ﺪ": 445,
      "ﺫ": 446,
      "ﺬ": 447,
      "ﺭ": 448,
      "ﺮ": 449,
      "ﺯ": 450,
      "ﺰ": 451,
      "ﺱ": 452,
      "ﺲ": 453,
      "ﺳ": 454,
      "ﺴ": 455,
      "ﺵ": 456,
      "ﺶ": 457,
      "ﺷ": 458,
      "ﺸ": 459,
      "ﺹ": 460,
      "ﺻ": 461,
      "ﺼ": 462,
      "ﺽ": 463,
      "ﺾ": 464,
      "ﺿ": 465,
      "ﻀ": 466,
      "ﻂ": 467,
      "ﻃ": 468,
      "ﻄ": 469,
      "ﻇ": 470,
      "ﻈ": 471,
      "ﻋ": 472,
      "ﻌ": 473,
      "ﻍ": 474,
      "ﻏ": 475,
      "ﻐ": 476,
      "ﻑ": 477,
      "ﻒ": 478,
      "ﻓ": 479,
      "ﻔ": 480,
      "ﻕ": 481,
      "ﻖ": 482,
      "ﻗ": 483,
      "ﻘ": 484,
      "ﻙ": 485,
      "ﻚ": 486,
      "ﻛ": 487,
      "ﻜ": 488,
      "ﻝ": 489,
      "ﻞ": 490,
      "ﻟ": 491,
      "ﻠ": 492,
      "ﻡ": 493,
      "ﻢ": 494,
      "ﻣ": 495,
      "ﻤ": 496,
      "ﻥ": 497,
      "ﻦ": 498,
      "ﻧ": 499,
      "ﻨ": 500,
      "ﻩ": 501,
      "ﻪ": 502,
      "ﻫ": 503,
      "ﻬ": 504,
      "ﻭ": 505,
      "ﻮ": 506,
      "ﻰ": 507,
      "ﻲ": 508,
      "ﻳ": 509,
      "ﻴ": 510,
      "ﻻ": 511,
      "ﻼ": 512,
      "；": 513,
      "￼": 514,
      "🌠": 515,
      "🌴": 516,
      "🌷": 517,
      "🌹": 518,
      "🌾": 519,
      "🌿": 520,
      "🍁": 521,
      "🍂": 522,
      "🏻": 523,
      "🐪": 524,
      "👆": 525,
      "👇": 526,
      "👈": 527,
      "👋": 528,
      "💓": 529,
      "📌": 530,
      "📖": 531,
      "📜": 532,
      "📝": 533,
      "😀": 534,
      "😁": 535,
      "😂": 536,
      "😃": 537,
      "😄": 538,
      "😅": 539,
      "😆": 540,
      "😭": 541,
      "🚌": 542,
      "🚍": 543,
      "🥀": 544,
      "ءَ": 545,
      "ان": 546,
      "ءِ": 547,
      "ءُ": 548,
      "ار": 549,
      "اں": 550,
      "یں": 551,
      "نت": 552,
      "کہ": 553,
      "وت": 554,
      "من": 555,
      "ات": 556,
      "یت": 557,
      "ست": 558,
      "را": 559,
      "انی": 560,
      "ند": 561,
      "اِ": 562,
      "گو": 563,
      "ال": 564,
      "ئی": 565,
      "اَ": 566,
      "۔۔": 567,
      "شت": 568,
      "انت": 569,
      "دی": 570,
      "ما": 571,
      "بل": 572,
      "نگ": 573,
      "رو": 574,
      "ئے": 575,
      "یک": 576,
      "اے": 577,
      "می": 578,
      "نہ": 579,
      "ری": 580,
      "رد": 581,
      "بیت": 582,
      "با": 583,
      "نی": 584,
      "ور": 585,
      "نا": 586,
      "سر": 587,
      "وتی": 588,
      "چی": 589,
      "تگ": 590,
      "ھم": 591,
      "دا": 592,
      "بی": 593,
      "کار": 594,
      "بوت": 595,
      "اِنت": 596,
      "کن": 597,
      "وا": 598,
      "ای": 599,
      "اَنت": 600,
      "بہ": 601,
      "تو": 602,
      "چہ": 603,
      "بر": 604,
      "پہ": 605,
      "در": 606,
      "مان": 607,
      "گی": 608,
      "سی": 609,
      "دو": 610,
      "گوں": 611,
      "اَت": 612,
      "چو": 613,
      "کُ": 614,
      "آئی": 615,
      "جا": 616,
      "وک": 617,
      "تا": 618,
      "بلو": 619,
      "منی": 620,
      "پی": 621,
      "لا": 622,
      "تہ": 623,
      "مرد": 624,
      "اد": 625,
      "لو": 626,
      "لی": 627,
      "سا": 628,
      "کی": 629,
      "وان": 630,
      "دار": 631,
      "شی": 632,
      "کس": 633,
      "کنت": 634,
      "گُ": 635,
      "بان": 636,
      "او": 637,
      "گپ": 638,
      "بلے": 639,
      "دل": 640,
      "دگ": 641,
      "کو": 642,
      "ھر": 643,
      "اگ": 644,
      "کنگ": 645,
      "بز": 646,
      "آ": 647,
      "ھی": 648,
      "شا": 649,
      "زی": 650,
      "کر": 651,
      "مر": 652,
      "بند": 653,
      "۔۔۔۔": 654,
      "بوتگ": 655,
      "تر": 656,
      "ُر": 657,
      "مردم": 658,
      "یا": 659,
      "بے": 660,
      "ڑا": 661,
      "اِت": 662,
      "مو": 663,
      "چار": 664,
      "دیم": 665,
      "پر": 666,
      "پد": 667,
      "وھ": 668,
      "باز": 669,
      "جی": 670,
      "نو": 671,
      "گر": 672,
      "دات": 673,
      "وار": 674,
      "ہم": 675,
      "انک": 676,
      "بلوچ": 677,
      "مہ": 678,
      "نب": 679,
      "ماں": 680,
      "بو": 681,
      "ھمے": 682,
      "کت": 683,
      "مار": 684,
      "کپ": 685,
      "آں": 686,
      "کا": 687,
      "نبشت": 688,
      "وش": 689,
      "مئے": 690,
      "بلوچی": 691,
      "بُ": 692,
      "َر": 693,
      "وڑ": 694,
      "تئی": 695,
      "گْ": 696,
      "بار": 697,
      "گیں": 698,
      "زند": 699,
      "روچ": 700,
      "اس": 701,
      "ــ": 702,
      "انگ": 703,
      "ون": 704,
      "زبان": 705,
      "گا": 706,
      "گوش": 707,
      "نام": 708,
      "گءَ": 709,
      "سک": 710,
      "چا": 711,
      "دگہ": 712,
      "۔۔۔": 713,
      "جن": 714,
      "ئیں": 715,
      "کم": 716,
      "سو": 717,
      "کش": 718,
      "زمان": 719,
      "دست": 720,
      "مُ": 721,
      "جہ": 722,
      "وھد": 723,
      "مل": 724,
      "کتگ": 725,
      "شتگ": 726,
      "چک": 727,
      "بنت": 728,
      "سرا": 729,
      "که": 730,
      "راہ": 731,
      "لہ": 732,
      "َگ": 733,
      "پا": 734,
      "َہ": 735,
      "تی": 736,
      "شر": 737,
      "ڈی": 738,
      "پدا": 739,
      "مز": 740,
      "ّی": 741,
      "ُک": 742,
      "بد": 743,
      "نیم": 744,
      "ھما": 745,
      "ترا": 746,
      "از": 747,
      "گال": 748,
      "گڑا": 749,
      "اری": 750,
      "اگاں": 751,
      "چے": 752,
      "ئِ": 753,
      "جاہ": 754,
      "ٹی": 755,
      "زان": 756,
      "لبز": 757,
      "زانت": 758,
      "نبشتہ": 759,
      "ایت": 760,
      "وَ": 761,
      "لوٹ": 762,
      "پت": 763,
      "تاب": 764,
      "ِر": 765,
      "بَ": 766,
      "ھا": 767,
      "نیں": 768,
      "نوک": 769,
      "جم": 770,
      "کل": 771,
      "ئِے": 772,
      "ہر": 773,
      "اتک": 774,
      "چم": 775,
      "کُت": 776,
      "هم": 777,
      "یے": 778,
      "جُ": 779,
      "راج": 780,
      "پُ": 781,
      "داں": 782,
      "گش": 783,
      "گند": 784,
      "کتاب": 785,
      "کے": 786,
      "کَ": 787,
      "چیز": 788,
      "ایر": 789,
      "کیں": 790,
      "تہا": 791,
      "ڈا": 792,
      "ول": 793,
      "است": 794,
      "شُ": 795,
      "ام": 796,
      "رنگ": 797,
      "ێں": 798,
      "اش": 799,
      "جان": 800,
      "ہی": 801,
      "بت": 802,
      "بیتگ": 803,
      "ایش": 804,
      "سال": 805,
      "مارا": 806,
      "نز": 807,
      "ایں": 808,
      "نوں": 809,
      "گِ": 810,
      "رند": 811,
      "آزمان": 812,
      "گار": 813,
      "دپ": 814,
      "گے": 815,
      "لّ": 816,
      "گاں": 817,
      "دم": 818,
      "واجہ": 819,
      "درو": 820,
      "ڑی": 821,
      "ھو": 822,
      "شپ": 823,
      "ستان": 824,
      "اُ": 825,
      "مات": 826,
      "مد": 827,
      "دَ": 828,
      "نڈ": 829,
      "پس": 830,
      "نیست": 831,
      "وانگ": 832,
      "آی": 833,
      "مین": 834,
      "مَ": 835,
      "اِے": 836,
      "ھت": 837,
      "نیا": 838,
      "سُ": 839,
      "بازیں": 840,
      "برے": 841,
      "لوگ": 842,
      "دومی": 843,
      "عر": 844,
      "ایشی": 845,
      "زر": 846,
      "پَ": 847,
      "زا": 848,
      "توار": 849,
      "یر": 850,
      "اوں": 851,
      "کّ": 852,
      "٭٭": 853,
      "پیش": 854,
      "بس": 855,
      "‘‘": 856,
      "واب": 857,
      "تک": 858,
      "چوش": 859,
      "ھگ": 860,
      "دوست": 861,
      "’’": 862,
      "میر": 863,
      "گل": 864,
      "شتر": 865,
      "سنگ": 866,
      "اِیت": 867,
      "پاد": 868,
      "جنگ": 869,
      "آئی": 870,
      "تاں": 871,
      "ہمے": 872,
      "ستگ": 873,
      "درا": 874,
      "سَ": 875,
      "چاگ": 876,
      "تاک": 877,
      "دُ": 878,
      "ءُُ": 879,
      "ناں": 880,
      "رَ": 881,
      "ٹر": 882,
      "ھال": 883,
      "گوشت": 884,
      "ھچ": 885,
      "سیا": 886,
      "گہ": 887,
      "میش": 888,
      "کناں": 889,
      "په": 890,
      "جیڑ": 891,
      "وہ": 892,
      "گْو": 893,
      "گوا": 894,
      "لام": 895,
      "کُتگ": 896,
      "خان": 897,
      "بِ": 898,
      "ّہ": 899,
      "دے": 900,
      "جو": 901,
      "شان": 902,
      "شم": 903,
      "ھل": 904,
      "آپ": 905,
      "گیش": 906,
      "سان": 907,
      "میت": 908,
      "بال": 909,
      "مزنیں": 910,
      "ھے": 911,
      "نچ": 912,
      "داتگ": 913,
      "کُر": 914,
      "کجا": 915,
      "گُش": 916,
      "کرت": 917,
      "شه": 918,
      "دور": 919,
      "سرءَ": 920,
      "رس": 921,
      "نک": 922,
      "،،": 923,
      "ریں": 924,
      "دان": 925,
      "دہ": 926,
      "بُر": 927,
      "ھاں": 928,
      "باد": 929,
      "آزمانک": 930,
      "پرچا": 931,
      "**": 932,
      "کِ": 933,
      "لبزانک": 934,
      "لے": 935,
      "ھیں": 936,
      "منا": 937,
      "دنت": 938,
      "جَ": 939,
      "کاری": 940,
      "شاہ": 941,
      "دْ": 942,
      "راست": 943,
      "مول": 944,
      "جوڑ": 945,
      "ھانی": 946,
      "مح": 947,
      "چاگرد": 948,
      "سید": 949,
      "جه": 950,
      "پرو": 951,
      "__": 952,
      "زار": 953,
      "یکے": 954,
      "نوکیں": 955,
      "لم": 956,
      "گور": 957,
      "چش": 958,
      "اِش": 959,
      "دری": 960,
      "سرپد": 961,
      "گیشتر": 962,
      "سرجم": 963,
      "پو": 964,
      "ـی": 965,
      "ہما": 966,
      "ھیال": 967,
      "نج": 968,
      "گشت": 969,
      "وھدے": 970,
      "نیمگ": 971,
      "کپتگ": 972,
      "ّے": 973,
      "مش": 974,
      "دیوان": 975,
      "بزاں": 976,
      "فی": 977,
      "نے": 978,
      "۔۔۔۔۔۔۔۔": 979,
      "ھست": 980,
      "ّا": 981,
      "ماہ": 982,
      "ِی": 983,
      "چُک": 984,
      "چُ": 985,
      "انیں": 986,
      "دام": 987,
      "ھیر": 988,
      "تہءَ": 989,
      "کاں": 990,
      "زور": 991,
      "میں": 992,
      "گدار": 993,
      "کان": 994,
      "مرا": 995,
      "..": 996,
      "باں": 997,
      "چَہ": 998,
      "سے": 999,
      "فر": 1000,
      "مست": 1001,
      "هر": 1002,
      "دنیا": 1003,
      "نچو": 1004,
      "َـ": 1005,
      "بیا": 1006,
      "اتاں": 1007,
      "نتگ": 1008,
      "گری": 1009,
      "جت": 1010,
      "اولی": 1011,
      "ئیت": 1012,
      "جُست": 1013,
      "پُر": 1014,
      "وال": 1015,
      "چیزے": 1016,
      "زانگ": 1017,
      "اتی": 1018,
      "کسے": 1019,
      "اتگ": 1020,
      "روان": 1021,
      "زُ": 1022,
      "حا": 1023,
      "رے": 1024,
      "بلئے": 1025,
      "انچ": 1026,
      "حی": 1027,
      "جند": 1028,
      "دیگ": 1029,
      "مرچی": 1030,
      "رھ": 1031,
      "نه": 1032,
      "ـت": 1033,
      "ــــ": 1034,
      "شو": 1035,
      "شک": 1036,
      "پِ": 1037,
      "لاس": 1038,
      "لگ": 1039,
      "منءَ": 1040,
      "جنی": 1041,
      "تیں": 1042,
      "زمین": 1043,
      "ساچ": 1044,
      "جست": 1045,
      "وں": 1046,
      "کسہ": 1047,
      "پچ": 1048,
      "گْوش": 1049,
      "زل": 1050,
      "آر": 1051,
      "مرو": 1052,
      "تَ": 1053,
      "سِ": 1054,
      "گُشت": 1055,
      "گُڑا": 1056,
      "چِ": 1057,
      "گَ": 1058,
      "تے": 1059,
      "وی": 1060,
      "دپتر": 1061,
      "جتا": 1062,
      "نِ": 1063,
      "زندگی": 1064,
      "ھُ": 1065,
      "نبی": 1066,
      "پار": 1067,
      "درد": 1068,
      "مھر": 1069,
      "بدال": 1070,
      "به": 1071,
      "انگت": 1072,
      "ملک": 1073,
      "بید": 1074,
      "آس": 1075,
      "شما": 1076,
      "اح": 1077,
      "بدل": 1078,
      "وکیں": 1079,
      "گءِ": 1080,
      "ھد": 1081,
      "مال": 1082,
      "انسان": 1083,
      "رُ": 1084,
      "انچو": 1085,
      "کرتگ": 1086,
      "سم": 1087,
      "کند": 1088,
      "داد": 1089,
      "نند": 1090,
      "پل": 1091,
      "بلکیں": 1092,
      "انکی": 1093,
      "دیما": 1094,
      "ّگ": 1095,
      "اتکگ": 1096,
      "شہ": 1097,
      "ھار": 1098,
      "ین": 1099,
      "کارے": 1100,
      "چَ": 1101,
      "زاناں": 1102,
      "بچک": 1103,
      "ّیں": 1104,
      "سگ": 1105,
      "یات": 1106,
      "کیت": 1107,
      "اِتاں": 1108,
      "کـ": 1109,
      "واست": 1110,
      "اوشت": 1111,
      "کپت": 1112,
      "پری": 1113,
      "بھر": 1114,
      "بابت": 1115,
      "کرا": 1116,
      "گون": 1117,
      "آئیءِ": 1118,
      "مانی": 1119,
      "لس": 1120,
      "ئےِ": 1121,
      "دیست": 1122,
      "مردماں": 1123,
      "مه": 1124,
      "مے": 1125,
      "چه": 1126,
      "گپّ": 1127,
      "اتر": 1128,
      "اتنت": 1129,
      "نّ": 1130,
      "……": 1131,
      "عبدال": 1132,
      "یگ": 1133,
      "ئیر": 1134,
      "نبشتانک": 1135,
      "باریں": 1136,
      "سرجمیں": 1137,
      "ئر": 1138,
      "واہ": 1139,
      "ادا": 1140,
      "محمد": 1141,
      "ۆں": 1142,
      "میتگ": 1143,
      "ٹّ": 1144,
      "برا": 1145,
      "ورنا": 1146,
      "انا": 1147,
      "زال": 1148,
      "طا": 1149,
      "اِتگ": 1150,
      "بلوچستان": 1151,
      "یل": 1152,
      "جاگہ": 1153,
      "دءَ": 1154,
      "مردمانی": 1155,
      "مِ": 1156,
      "دِ": 1157,
      "مُر": 1158,
      "وڑیں": 1159,
      "ایوک": 1160,
      "لَ": 1161,
      "کوہ": 1162,
      "درست": 1163,
      "مروچی": 1164,
      "بست": 1165,
      "گانی": 1166,
      "مس": 1167,
      "ڈاک": 1168,
      "کنان": 1169,
      "انچیں": 1170,
      "علی": 1171,
      "بن": 1172,
      "شتی": 1173,
      "وانوک": 1174,
      "ئیگ": 1175,
      "کجام": 1176,
      "له": 1177,
      "کدی": 1178,
      "ساہ": 1179,
      "بندات": 1180,
      "راں": 1181,
      "آئیءَ": 1182,
      "ھَ": 1183,
      "شعر": 1184,
      "سنگت": 1185,
      "رِ": 1186,
      "جنین": 1187,
      "مردمے": 1188,
      "مزن": 1189,
      "بکن": 1190,
      "وه": 1191,
      "٭٭٭٭": 1192,
      "شیر": 1193,
      "وتا": 1194,
      "نگی": 1195,
      "گندگ": 1196,
      "ید": 1197,
      "ھند": 1198,
      "دمان": 1199,
      "راب": 1200,
      "پٹ": 1201,
      "زگ": 1202,
      "جار": 1203,
      "نشتگ": 1204,
      "مت": 1205,
      "گوست": 1206,
      "گپت": 1207,
      "ونک": 1208,
      "ھان": 1209,
      "”.": 1210,
      "ساب": 1211,
      "اص": 1212,
      "بیگ": 1213,
      "شاد": 1214,
      "روک": 1215,
      "نٹ": 1216,
      "اج": 1217,
      "زِ": 1218,
      "کور": 1219,
      "روچے": 1220,
      "نس": 1221,
      "شَ": 1222,
      "رہ": 1223,
      "ھور": 1224,
      "مب": 1225,
      "لک": 1226,
      "تُ": 1227,
      "جنت": 1228,
      "الی": 1229,
      ",,": 1230,
      "اہ": 1231,
      "مھ": 1232,
      "وری": 1233,
      "ْر": 1234,
      "پمیش": 1235,
      "ڈاکٹر": 1236,
      "۔۔۔۔۔": 1237,
      "نَ": 1238,
      "سہ": 1239,
      "گۆں": 1240,
      "ناز": 1241,
      "ھوار": 1242,
      "چیر": 1243,
      "گالوار": 1244,
      "کول": 1245,
      "شُت": 1246,
      "سب": 1247,
      "کنیں": 1248,
      "پاک": 1249,
      "ّو": 1250,
      "سار": 1251,
      "بیر": 1252,
      "اللہ": 1253,
      "زمانگ": 1254,
      "چارگ": 1255,
      "ابید": 1256,
      "زیر": 1257,
      "بُن": 1258,
      "همے": 1259,
      "ءٙ": 1260,
      "مراد": 1261,
      "چین": 1262,
      "کُرتگ": 1263,
      "روگ": 1264,
      "چون": 1265,
      "شاعر": 1266,
      "تب": 1267,
      "ّاں": 1268,
      "آز": 1269,
      "بچار": 1270,
      "ھبر": 1271,
      "ہچ": 1272,
      "جنک": 1273,
      "لھت": 1274,
      "سد": 1275,
      "ودی": 1276,
      "تھ": 1277,
      "دَر": 1278,
      "پیسر": 1279,
      "جوان": 1280,
      "کارست": 1281,
      "پیم": 1282,
      "سما": 1283,
      "پول": 1284,
      "یکیں": 1285,
      "چاپ": 1286,
      "وانی": 1287,
      "داری": 1288,
      "جتگ": 1289,
      "لبزانکی": 1290,
      "ئگ": 1291,
      "مڑ": 1292,
      "ورگ": 1293,
      "پیدا": 1294,
      "ماش": 1295,
      "شگ": 1296,
      "لچ": 1297,
      "کارمر": 1298,
      "دربر": 1299,
      "آتک": 1300,
      "مدام": 1301,
      "رھبند": 1302,
      "روت": 1303,
      "دین": 1304,
      "عری": 1305,
      "تُر": 1306,
      "شئیر": 1307,
      "پیر": 1308,
      "لُ": 1309,
      "دارگ": 1310,
      "پشت": 1311,
      "یو": 1312,
      "آہ": 1313,
      "بات": 1314,
      "قا": 1315,
      "مولانا": 1316,
      "دیر": 1317,
      "دیستگ": 1318,
      "راجی": 1319,
      "پتگ": 1320,
      "اه": 1321,
      "پان": 1322,
      "!!": 1323,
      "جاه": 1324,
      "اشی": 1325,
      "——": 1326,
      "پسہ": 1327,
      "ێن": 1328,
      "الم": 1329,
      "سَر": 1330,
      "نما": 1331,
      "سپر": 1332,
      "اط": 1333,
      "لاپ": 1334,
      "ھمک": 1335,
      "سوب": 1336,
      "برو": 1337,
      "زُبان": 1338,
      "رین": 1339,
      "ائی": 1340,
      "چوں": 1341,
      "یاں": 1342,
      "انط": 1343,
      "بـ": 1344,
      "وڑا": 1345,
      "جاور": 1346,
      "زم": 1347,
      "بول": 1348,
      "ته": 1349,
      "دوئیں": 1350,
      "ھن": 1351,
      "کراچی": 1352,
      "شن": 1353,
      "گیر": 1354,
      "کئے": 1355,
      "ودار": 1356,
      "کاراں": 1357,
      "بنی": 1358,
      "مری": 1359,
      "گاہ": 1360,
      "کسانیں": 1361,
      "شِ": 1362,
      "نشت": 1363,
      "اڑ": 1364,
      "مع": 1365,
      "اک": 1366,
      "واری": 1367,
      "وم": 1368,
      "بہر": 1369,
      "____": 1370,
      "ساس": 1371,
      "مج": 1372,
      "ژن": 1373,
      "سکی": 1374,
      "کُرت": 1375,
      "شنگ": 1376,
      "گْوشت": 1377,
      "چست": 1378,
      "بُوت": 1379,
      "پمیشکا": 1380,
      "زُر": 1381,
      "یار": 1382,
      "ندر": 1383,
      "رج": 1384,
      "بادشاہ": 1385,
      "بَلے": 1386,
      "ہَ": 1387,
      "اب": 1388,
      "زَ": 1389,
      "ندار": 1390,
      "ـیـ": 1391,
      "گِر": 1392,
      "سبز": 1393,
      "هما": 1394,
      "دروشم": 1395,
      "ایشانی": 1396,
      "کنگءَ": 1397,
      "ساز": 1398,
      "گُل": 1399,
      "پاس": 1400,
      "کانی": 1401,
      "زندگ": 1402,
      "واں": 1403,
      "شاعری": 1404,
      "کں": 1405,
      "گـ": 1406,
      "گپتگ": 1407,
      "داشت": 1408,
      "وارت": 1409,
      "آیانی": 1410,
      "مستریں": 1411,
      "آئ": 1412,
      "طگ": 1413,
      "سٹ": 1414,
      "نبیس": 1415,
      "بوھ": 1416,
      "رست": 1417,
      "ردار": 1418,
      "ود": 1419,
      "ریچ": 1420,
      "نائی": 1421,
      "کڑ": 1422,
      "ناکو": 1423,
      "دلگوش": 1424,
      "شمی": 1425,
      "چّ": 1426,
      "گڈا": 1427,
      "شوھ": 1428,
      "ورا": 1429,
      "ارس": 1430,
      "مـ": 1431,
      "نـ": 1432,
      "ردی": 1433,
      "نان": 1434,
      "هی": 1435,
      "واجه": 1436,
      "اردو": 1437,
      "ؤر": 1438,
      "ّر": 1439,
      "شوھاز": 1440,
      "()": 1441,
      "آدم": 1442,
      "نم": 1443,
      "روز": 1444,
      "یکی": 1445,
      "دستونک": 1446,
      "نیمگءَ": 1447,
      "تھا": 1448,
      "دز": 1449,
      "برات": 1450,
      "****": 1451,
      "گِند": 1452,
      "وگ": 1453,
      "پُشت": 1454,
      "….": 1455,
      "دود": 1456,
      "عی": 1457,
      "قی": 1458,
      "ملا": 1459,
      "بوتاں": 1460,
      "مہر": 1461,
      "ولی": 1462,
      "راجدپتر": 1463,
      "وس": 1464,
      "اپ": 1465,
      "یلہ": 1466,
      "داب": 1467,
      "کماش": 1468,
      "چیا": 1469,
      "ادءَ": 1470,
      "دراہ": 1471,
      "بازار": 1472,
      "کارمرز": 1473,
      "چرا": 1474,
      "نـت": 1475,
      "ڈگار": 1476,
      "رام": 1477,
      "بزانت": 1478,
      "لاں": 1479,
      "راستی": 1480,
      "ھب": 1481,
      "دیمءَ": 1482,
      "اێں": 1483,
      "جیڑہ": 1484,
      "پِر": 1485,
      "کمو": 1486,
      "اِتنت": 1487,
      "الله": 1488,
      "وٹ": 1489,
      "زین": 1490,
      "شانی": 1491,
      "کُجا": 1492,
      "داریں": 1493,
      "دیمرو": 1494,
      "نور": 1495,
      "سن": 1496,
      "ءّ": 1497,
      "ّت": 1498,
      "پنچ": 1499,
      "سمل": 1500,
      "سلام": 1501,
      "شہر": 1502,
      "کئیت": 1503,
      "ھمیش": 1504,
      "شریں": 1505,
      "وہد": 1506,
      "کءَ": 1507,
      "اُست": 1508,
      "سیاہ": 1509,
      "واھگ": 1510,
      "مں": 1511,
      "انگری": 1512,
      "آیاں": 1513,
      "کری": 1514,
      "گمان": 1515,
      "گوات": 1516,
      "بانی": 1517,
      "تل": 1518,
      "چند": 1519,
      "گاڑی": 1520,
      "حیال": 1521,
      "ازم": 1522,
      "رجانک": 1523,
      "ڈن": 1524,
      "انءَ": 1525,
      "باسک": 1526,
      "ھساب": 1527,
      "انچوش": 1528,
      "بائ": 1529,
      "مھل": 1530,
      "سبب": 1531,
      "لچہ": 1532,
      "ارز": 1533,
      "اناں": 1534,
      "پّ": 1535,
      "پمش": 1536,
      "پێ": 1537,
      "کنئے": 1538,
      "پدی": 1539,
      "ماس": 1540,
      "لچّہ": 1541,
      "آسر": 1542,
      "چشکہ": 1543,
      "کساس": 1544,
      "ھلاس": 1545,
      "آن": 1546,
      "چمّ": 1547,
      "اث": 1548,
      "ےءَ": 1549,
      "مپ": 1550,
      "ڑاں": 1551,
      "جر": 1552,
      "جِ": 1553,
      "جّ": 1554,
      "ارا": 1555,
      "اںت": 1556,
      "چر": 1557,
      "چُش": 1558,
      "نوی": 1559,
      "ڈّ": 1560,
      "باید": 1561,
      "اف": 1562,
      "موسم": 1563,
      "مّ": 1564,
      "کای": 1565,
      "اںط": 1566,
      "پون": 1567,
      "بُرز": 1568,
      "لیں": 1569,
      "ندی": 1570,
      "تریں": 1571,
      "پھ": 1572,
      "کال": 1573,
      "استاد": 1574,
      "پش": 1575,
      "موش": 1576,
      "گان": 1577,
      "ورت": 1578,
      "شری": 1579,
      "تامر": 1580,
      "شائ": 1581,
      "کپیت": 1582,
      "گیج": 1583,
      "راه": 1584,
      "بندی": 1585,
      "سری": 1586,
      "گپے": 1587,
      "گرد": 1588,
      "بئے": 1589,
      "ہے": 1590,
      "حال": 1591,
      "کوٹی": 1592,
      "عا": 1593,
      "پیت": 1594,
      "گران": 1595,
      "مانا": 1596,
      "مرگ": 1597,
      "آھانی": 1598,
      "لِ": 1599,
      "ساچشت": 1600,
      "وتءَ": 1601,
      "بڑ": 1602,
      "دُر": 1603,
      "واتر": 1604,
      "وشی": 1605,
      "شاه": 1606,
      "ﺀَ": 1607,
      "مند": 1608,
      "کارانی": 1609,
      "ادگ": 1610,
      "شھر": 1611,
      "درچک": 1612,
      "نَگ": 1613,
      "ڈول": 1614,
      "تان": 1615,
      "فا": 1616,
      "وھدی": 1617,
      "حق": 1618,
      "بگر": 1619,
      "بَر": 1620,
      "ھزار": 1621,
      "میان": 1622,
      "جوانیں": 1623,
      "علم": 1624,
      "ٹک": 1625,
      "تگیں": 1626,
      "چن": 1627,
      "گت": 1628,
      "چونیں": 1629,
      "لیک": 1630,
      "گه": 1631,
      "راز": 1632,
      "رائی": 1633,
      "ـر": 1634,
      "تران": 1635,
      "بکش": 1636,
      "واستا": 1637,
      "عہ": 1638,
      "داشتگ": 1639,
      "بوہ": 1640,
      "لوٹیت": 1641,
      "بکنت": 1642,
      "جال": 1643,
      "بچکند": 1644,
      "ضی": 1645,
      "ڈال": 1646,
      "گنوک": 1647,
      "کنوک": 1648,
      "دلءَ": 1649,
      "نزیک": 1650,
      "دشتی": 1651,
      "نر": 1652,
      "گچ": 1653,
      "زیبا": 1654,
      "ازگ": 1655,
      "صاح": 1656,
      "بِہ": 1657,
      "سوار": 1658,
      "سین": 1659,
      "چاں": 1660,
      "اتیں": 1661,
      "پیداک": 1662,
      "شاں": 1663,
      "شائر": 1664,
      "ھاشمی": 1665,
      "مگ": 1666,
      "بیں": 1667,
      "واز": 1668,
      "چونا": 1669,
      "اراں": 1670,
      "کسّہ": 1671,
      "شانک": 1672,
      "وط": 1673,
      "اسکول": 1674,
      "شّ": 1675,
      "سفر": 1676,
      "سوج": 1677,
      "مجی": 1678,
      "عطا": 1679,
      "درشان": 1680,
      "گام": 1681,
      "فار": 1682,
      "اترا": 1683,
      "درور": 1684,
      "بور": 1685,
      "چماں": 1686,
      "بیست": 1687,
      "ڈر": 1688,
      "صاحب": 1689,
      "بھ": 1690,
      "ایشاں": 1691,
      "ماچ": 1692,
      "گوشگ": 1693,
      "دراھیں": 1694,
      "ساری": 1695,
      "اگں": 1696,
      "دریا": 1697,
      "نیک": 1698,
      "ےءِ": 1699,
      "بوتیں": 1700,
      "اںا": 1701,
      "ھدا": 1702,
      "ھمراہ": 1703,
      "پگر": 1704,
      "سکّ": 1705,
      "چشیں": 1706,
      "بستگ": 1707,
      "زہ": 1708,
      "توک": 1709,
      "ئیل": 1710,
      "سائ": 1711,
      "لہتیں": 1712,
      "جتائیں": 1713,
      "تئ": 1714,
      "منت": 1715,
      "نیام": 1716,
      "مکر": 1717,
      "راد": 1718,
      "بانک": 1719,
      "اچ": 1720,
      "مید": 1721,
      "مولاںا": 1722,
      "شائری": 1723,
      "صر": 1724,
      "ہیں": 1725,
      "سرپدی": 1726,
      "گوازی": 1727,
      "مارشت": 1728,
      "لان": 1729,
      "سیر": 1730,
      "پڑ": 1731,
      "کلات": 1732,
      "پور": 1733,
      "مھلوک": 1734,
      "ڈے": 1735,
      "بارو": 1736,
      "کشّ": 1737,
      "جل": 1738,
      "ھِ": 1739,
      "گشیت": 1740,
      "اور": 1741,
      "تچک": 1742,
      "مھم": 1743,
      "منّ": 1744,
      "یکّ": 1745,
      "بوان": 1746,
      "َرّ": 1747,
      "لھتیں": 1748,
      "ربی": 1749,
      "روس": 1750,
      "۔۔۔!": 1751,
      "ارے": 1752,
      "بوگ": 1753,
      "سیاسی": 1754,
      "هچ": 1755,
      "ُم": 1756,
      "ڈو": 1757,
      "دانکہ": 1758,
      "کوش": 1759,
      "چگ": 1760,
      "کنگی": 1761,
      "آرگ": 1762,
      "سل": 1763,
      "ﺀِ": 1764,
      "دیاں": 1765,
      "لیکہ": 1766,
      "رنگیں": 1767,
      "کاگ": 1768,
      "بلک": 1769,
      "جاھے": 1770,
      "روچاں": 1771,
      "زوت": 1772,
      "گوشتگ": 1773,
      "تـ": 1774,
      "دھ": 1775,
      "زورا": 1776,
      "اَتءُ": 1777,
      "بارت": 1778,
      "نیمگا": 1779,
      "رک": 1780,
      "ھون": 1781,
      "اریں": 1782,
      "ستا": 1783,
      "بیان": 1784,
      "کمے": 1785,
      "پسو": 1786,
      "گس": 1787,
      "وریں": 1788,
      "اُستاد": 1789,
      "شون": 1790,
      "کسی": 1791,
      "زالبول": 1792,
      "گڑ": 1793,
      "کیچ": 1794,
      "زاں": 1795,
      "دئیگ": 1796,
      "گْور": 1797,
      "تُرس": 1798,
      "گونڈ": 1799,
      "رانی": 1800,
      "لۆ": 1801,
      "ماھ": 1802,
      "شُتگ": 1803,
      "رح": 1804,
      "پن": 1805,
      "گشگ": 1806,
      "بنگ": 1807,
      "راھ": 1808,
      "گم": 1809,
      "آب": 1810,
      "کارمرد": 1811,
      "نگیں": 1812,
      "بین": 1813,
      "بخ": 1814,
      "زّ": 1815,
      "۔۔۔۔۔۔": 1816,
      "پدءَ": 1817,
      "شال": 1818,
      "لانی": 1819,
      "چاکر": 1820,
      "تال": 1821,
      "ێش": 1822,
      "عمر": 1823,
      "ٹا": 1824,
      "کین": 1825,
      "شام": 1826,
      "اکس": 1827,
      "سْ": 1828,
      "ڑو": 1829,
      "این": 1830,
      "گرگ": 1831,
      "مُدام": 1832,
      "تھنا": 1833,
      "سند": 1834,
      "وارتگ": 1835,
      "جنجال": 1836,
      "کلک": 1837,
      "آھاں": 1838,
      "شے": 1839,
      "الّ": 1840,
      "بُو": 1841,
      "تاکدیم": 1842,
      "ھاتر": 1843,
      "رواں": 1844,
      "دوستی": 1845,
      "“”": 1846,
      "اِیں": 1847,
      "دْرو": 1848,
      "آماچ": 1849,
      "سردار": 1850,
      "زھر": 1851,
      "سُر": 1852,
      "انگریزی": 1853,
      "حر": 1854,
      "گْوا": 1855,
      "گوْ": 1856,
      "باندات": 1857,
      "کلاس": 1858,
      "ھرچ": 1859,
      "ھُدا": 1860,
      "زِر": 1861,
      "سیم": 1862,
      "ساھت": 1863,
      "شھ": 1864,
      "بادی": 1865,
      "براں": 1866,
      "کوپ": 1867,
      "چاہ": 1868,
      "حاق": 1869,
      "نص": 1870,
      "نُ": 1871,
      "گورا": 1872,
      "کمک": 1873,
      "عکس": 1874,
      "ہو": 1875,
      "کسان": 1876,
      "سّ": 1877,
      "گْوست": 1878,
      "اوشتاتگ": 1879,
      "دِل": 1880,
      "رئی": 1881,
      "مکن": 1882,
      "نبشتگ": 1883,
      "وگیں": 1884,
      "ادار": 1885,
      "چاگردی": 1886,
      "۔۔۔۔۔۔۔۔۔۔۔۔۔۔۔۔": 1887,
      "تِ": 1888,
      "چـ": 1889,
      "سیمی": 1890,
      "اودا": 1891,
      "گوادر": 1892,
      "وانوکاں": 1893,
      "ئینت": 1894,
      "وشیں": 1895,
      "جمی": 1896,
      "ترس": 1897,
      "زِند": 1898,
      "بءَ": 1899,
      "ںه": 1900,
      "ھھ": 1901,
      "بیار": 1902,
      "باروا": 1903,
      "خی": 1904,
      "زت": 1905,
      "راھی": 1906,
      "نادرا": 1907,
      "گپاں": 1908,
      "دانک": 1909,
      "لوگءَ": 1910,
      "نشان": 1911,
      "وڈ": 1912,
      "ونتگ": 1913,
      "سئے": 1914,
      "عب": 1915,
      "ونت": 1916,
      "ھوٹ": 1917,
      "احمد": 1918,
      "لھتے": 1919,
      "ء_": 1920,
      "لال": 1921,
      "یانی": 1922,
      "زندءِ": 1923,
      "بری": 1924,
      "لوک": 1925,
      "گءُ": 1926,
      "چُکّ": 1927,
      "ارزشت": 1928,
      "فت": 1929,
      "آئ": 1930,
      "آزات": 1931,
      "رؤ": 1932,
      "هـ": 1933,
      "پروش": 1934,
      "واستہ": 1935,
      "گُڈ": 1936,
      "ژنا": 1937,
      "کِر": 1938,
      "ایران": 1939,
      "دراج": 1940,
      "چری": 1941,
      "مراگش": 1942,
      "میڈ": 1943,
      "نماز": 1944,
      "بچ": 1945,
      "زرد": 1946,
      "کتا": 1947,
      "ہاں": 1948,
      "میار": 1949,
      "بُوتگ": 1950,
      "؟”": 1951,
      "سانی": 1952,
      "برز": 1953,
      "دئے": 1954,
      "کٹ": 1955,
      "منزل": 1956,
      "کرد": 1957,
      "جمع": 1958,
      "گچکی": 1959,
      "ربیدگ": 1960,
      "ہیر": 1961,
      "چوشیں": 1962,
      "لۆٹ": 1963,
      "نود": 1964,
      "گوشاں": 1965,
      "لءَ": 1966,
      "ڑے": 1967,
      "منیر": 1968,
      "شار": 1969,
      "کبر": 1970,
      "مجید": 1971,
      "وہدے": 1972,
      "بابتءَ": 1973,
      "جْ": 1974,
      "اںی": 1975,
      "بوھگ": 1976,
      "کنئگ": 1977,
      "لیب": 1978,
      "آں": 1979,
      "اۆ": 1980,
      "شکر": 1981,
      "قر": 1982,
      "بلا": 1983,
      "چمانی": 1984,
      "نچیں": 1985,
      "کریم": 1986,
      "نظ": 1987,
      "یکّے": 1988,
      "نبیسگ": 1989,
      "گلا": 1990,
      "دروازگ": 1991,
      "ماتی": 1992,
      "تور": 1993,
      "۔”": 1994,
      "باہ": 1995,
      "مردے": 1996,
      "ﻧﺖ": 1997,
      "لّا": 1998,
      "؟؟": 1999,
      "دّ": 2000,
      "ٹو": 2001,
      "ساھگ": 2002,
      "درستیں": 2003,
      "ندارگ": 2004,
      "دیں": 2005,
      "ردو": 2006,
      "باری": 2007,
      "جھ": 2008,
      "مک": 2009,
      "چان": 2010,
      "جون": 2011,
      "گرا": 2012,
      "کاینت": 2013,
      "کلو": 2014,
      "بستار": 2015,
      "زھگ": 2016,
      "ُو": 2017,
      "ڈَ": 2018,
      "پرچاکہ": 2019,
      "اکی": 2020,
      "تری": 2021,
      "تام": 2022,
      "جھد": 2023,
      "گشتگ": 2024,
      "چمشانک": 2025,
      "بّ": 2026,
      "عل": 2027,
      "آباد": 2028,
      "گوئ": 2029,
      "ــــــــ": 2030,
      "بخش": 2031,
      "شَر": 2032,
      "اینچو": 2033,
      "بلوچانی": 2034,
      "ٹہ": 2035,
      "داریت": 2036,
      "زُرت": 2037,
      "زانتکار": 2038,
      "جُھد": 2039,
      "آیی": 2040,
      "نال": 2041,
      "ستی": 2042,
      "لاہ": 2043,
      "لوٹاں": 2044,
      "جیڑگ": 2045,
      "شمے": 2046,
      "نمدی": 2047,
      "زرت": 2048,
      "بالاد": 2049,
      "مکران": 2050,
      "سرو": 2051,
      "پمشکا": 2052,
      "دانی": 2053,
      "يں": 2054,
      "دیوال": 2055,
      "برکت": 2056,
      "سکیں": 2057,
      "ماه": 2058,
      "رجان": 2059,
      "مبار": 2060,
      "آدی": 2061,
      "کگ": 2062,
      "بازی": 2063,
      "پُل": 2064,
      "بُرت": 2065,
      "تْ": 2066,
      "تْر": 2067,
      "مُلک": 2068,
      "سرکار": 2069,
      "چاریں": 2070,
      "٭٭٭٭٭٭٭٭": 2071,
      "ڈل": 2072,
      "ھشت": 2073,
      "بیط": 2074,
      "بزان": 2075,
      "تیا": 2076,
      "سوت": 2077,
      "شنا": 2078,
      "پیس": 2079,
      "ـــ": 2080,
      "سور": 2081,
      "ُـ": 2082,
      "ہمراہ": 2083,
      "صط": 2084,
      "ہمک": 2085,
      "ہانی": 2086,
      "دْر": 2087,
      "گوز": 2088,
      "البت": 2089,
      "اَچ": 2090,
      "گراں": 2091,
      "گنج": 2092,
      "گیشی": 2093,
      "بَہ": 2094,
      "شمئے": 2095,
      "چنچو": 2096,
      "وتارا": 2097,
      "بیگوا": 2098,
      "کوھ": 2099,
      "تیار": 2100,
      "پند": 2101,
      "ھک": 2102,
      "زانتی": 2103,
      "دُور": 2104,
      "زرتگ": 2105,
      "نط": 2106,
      "زانتگ": 2107,
      "زاه": 2108,
      "تھر": 2109,
      "قل": 2110,
      "اسپیت": 2111,
      "مشکل": 2112,
      "دءِ": 2113,
      "برگ": 2114,
      "شاھی": 2115,
      "آئیءِ": 2116,
      "تن": 2117,
      "گڈ": 2118,
      "ھیران": 2119,
      "واه": 2120,
      "آہانی": 2121,
      "برجاہ": 2122,
      "کرن": 2123,
      "گچین": 2124,
      "نامءَ": 2125,
      "رسیت": 2126,
      "پـ": 2127,
      "دیدگ": 2128,
      "بگ": 2129,
      "دلی": 2130,
      "ﺎﺭ": 2131,
      "گالانی": 2132,
      "نگیج": 2133,
      "آجو": 2134,
      "سّہ": 2135,
      "بوتگیں": 2136,
      "نودربر": 2137,
      "اما": 2138,
      "َت": 2139,
      "ٹَ": 2140,
      "کمی": 2141,
      "تاج": 2142,
      "اشت": 2143,
      "بگند": 2144,
      "کشگ": 2145,
      "بالی": 2146,
      "آئرا": 2147,
      "جمعه": 2148,
      "قو": 2149,
      "گیری": 2150,
      "لیٹ": 2151,
      "پاکستان": 2152,
      "رِد": 2153,
      "مٹ": 2154,
      "پَہ": 2155,
      "…..": 2156,
      "تیوگیں": 2157,
      "زدہ": 2158,
      "غلام": 2159,
      "مث": 2160,
      "ھاترا": 2161,
      "یکجاہ": 2162,
      "دائ": 2163,
      "گھ": 2164,
      "ھیل": 2165,
      "کلدار": 2166,
      "موک": 2167,
      "اناگ": 2168,
      "لائ": 2169,
      "تہنا": 2170,
      "ساپ": 2171,
      "پربند": 2172,
      "وڑے": 2173,
      "تِر": 2174,
      "شتگیں": 2175,
      "بیگاہ": 2176,
      "لین": 2177,
      "تاری": 2178,
      "پنج": 2179,
      "قت": 2180,
      "ھاس": 2181,
      "ناہ": 2182,
      "گُشگ": 2183,
      "ده": 2184,
      "نار": 2185,
      "اِی": 2186,
      "۔۔!": 2187,
      "نیت": 2188,
      "کرو": 2189,
      "شیخ": 2190,
      "مرڈ": 2191,
      "ڈیھ": 2192,
      "سیاھگ": 2193,
      "ہمیش": 2194,
      "مئی": 2195,
      "مَر": 2196,
      "ارواہ": 2197,
      "وھدءَ": 2198,
      "یونی": 2199,
      "یہ": 2200,
      "گوشیت": 2201,
      "پاگوا": 2202,
      "اِدا": 2203,
      "لاچار": 2204,
      "گشئے": 2205,
      "//": 2206,
      "لانک": 2207,
      "نجی": 2208,
      "ها": 2209,
      "کست": 2210,
      "یاد": 2211,
      "والا": 2212,
      "==": 2213,
      "آھت": 2214,
      "مءَ": 2215,
      "دگه": 2216,
      "ترانگ": 2217,
      "سْیا": 2218,
      "ابر": 2219,
      "قوم": 2220,
      "دیمروی": 2221,
      "کتابے": 2222,
      "بنا": 2223,
      "یکبرے": 2224,
      "ایم": 2225,
      "اود": 2226,
      "کِسّہ": 2227,
      "مذ": 2228,
      "باندا": 2229,
      "کمیں": 2230,
      "سول": 2231,
      "عت": 2232,
      "وز": 2233,
      "کھ": 2234,
      "کننت": 2235,
      "بوط": 2236,
      "کتابانی": 2237,
      "ثر": 2238,
      "پجار": 2239,
      "جنگل": 2240,
      "شمارا": 2241,
      "ژمن": 2242,
      "منٹ": 2243,
      "سیاست": 2244,
      "دستاں": 2245,
      "شرپ": 2246,
      "بْ": 2247,
      "ﺎﮞ": 2248,
      "ناول": 2249,
      "دگے": 2250,
      "ھرکس": 2251,
      "اسلام": 2252,
      "لب": 2253,
      "لـ": 2254,
      "مبر": 2255,
      "نات": 2256,
      "باور": 2257,
      "درگت": 2258,
      "کسانی": 2259,
      "پرچہ": 2260,
      "دریگ": 2261,
      "پسّو": 2262,
      "بُرتگ": 2263,
      "عبڈال": 2264,
      "غر": 2265,
      "گُشتگ": 2266,
      "زیمر": 2267,
      "داتگیں": 2268,
      "رندے": 2269,
      "قاضی": 2270,
      "زُرتگ": 2271,
      "جھل": 2272,
      "کلا": 2273,
      "شُما": 2274,
      "بک": 2275,
      "حمید": 2276,
      "ندہ": 2277,
      "ادب": 2278,
      "________": 2279,
      "شکار": 2280,
      "ہا": 2281,
      "مُلّا": 2282,
      "دمگ": 2283,
      "سپا": 2284,
      "سٹی": 2285,
      "کئی": 2286,
      "ہند": 2287,
      "نامداریں": 2288,
      "سنگتاں": 2289,
      "سیادی": 2290,
      "دْروشم": 2291,
      "بي": 2292,
      "کُش": 2293,
      "آؤر": 2294,
      "کْ": 2295,
      "دیان": 2296,
      "اول": 2297,
      "مُراد": 2298,
      "نصیر": 2299,
      "شور": 2300,
      "ودا": 2301,
      "ھراب": 2302,
      "ہن": 2303,
      "ارمان": 2304,
      "دینت": 2305,
      "وکی": 2306,
      "دلءِ": 2307,
      "ساں": 2308,
      "اسحاق": 2309,
      "وھداں": 2310,
      "وشّ": 2311,
      "کـَـ": 2312,
      "روچءَ": 2313,
      "ران": 2314,
      "لٹ": 2315,
      "چکا": 2316,
      "کنگا": 2317,
      "آدینک": 2318,
      "ریک": 2319,
      "ہءَ": 2320,
      "یَ": 2321,
      "ئین": 2322,
      "روش": 2323,
      "ورتگ": 2324,
      "زیز": 2325,
      "وَت": 2326,
      "رحی": 2327,
      "صبا": 2328,
      "پرا": 2329,
      "مومن": 2330,
      "دستءَ": 2331,
      "کَش": 2332,
      "وهدے": 2333,
      "رت": 2334,
      "پیلو": 2335,
      "پریشان": 2336,
      "ادی": 2337,
      "بں": 2338,
      "گریں": 2339,
      "ونڈ": 2340,
      "چندن": 2341,
      "جّار": 2342,
      "بھا": 2343,
      "خا": 2344,
      "دشت": 2345,
      "ره": 2346,
      "زھیر": 2347,
      "سیت": 2348,
      "هال": 2349,
      "ھتگ": 2350,
      "زبانءِ": 2351,
      "اشاں": 2352,
      "زاھ": 2353,
      "اوشتات": 2354,
      "نئیت": 2355,
      "سرگوست": 2356,
      "زبانانی": 2357,
      "تها": 2358,
      "پَر": 2359,
      "ہُ": 2360,
      "بامن": 2361,
      "جہل": 2362,
      "مسیت": 2363,
      "————": 2364,
      "حکو": 2365,
      "دنی": 2366,
      "شش": 2367,
      "اندر": 2368,
      "چاراں": 2369,
      "جنان": 2370,
      "پے": 2371,
      "ہور": 2372,
      "المی": 2373,
      "کارءَ": 2374,
      "گیدی": 2375,
      "پرواز": 2376,
      "دشتیاری": 2377,
      "اڈ": 2378,
      "رستگ": 2379,
      "ﯿﮟ": 2380,
      "اتے": 2381,
      "سرھال": 2382,
      "مجلس": 2383,
      "چپ": 2384,
      "جہد": 2385,
      "ّین": 2386,
      "سلی": 2387,
      "وف": 2388,
      "بدلی": 2389,
      "بنداں": 2390,
      "گوشط": 2391,
      "امیت": 2392,
      "گْوشگ": 2393,
      "ٹِ": 2394,
      "لامی": 2395,
      "دگر": 2396,
      "مردین": 2397,
      "مرچاں": 2398,
      "اشانی": 2399,
      "نزّ": 2400,
      "گورءَ": 2401,
      "بہا": 2402,
      "چُشیں": 2403,
      "بئیت": 2404,
      "شط": 2405,
      "لر": 2406,
      "ڈنّ": 2407,
      "شتاں": 2408,
      "داراں": 2409,
      "زبانے": 2410,
      "گاڈی": 2411,
      "اُمیت": 2412,
      "راستیں": 2413,
      "اکیڈ": 2414,
      "رحیم": 2415,
      "سراں": 2416,
      "الّم": 2417,
      "چریشی": 2418,
      "مبارک": 2419,
      "ہار": 2420,
      "تاوان": 2421,
      "ائ": 2422,
      "ایک": 2423,
      "جھان": 2424,
      "سانگ": 2425,
      "وسی": 2426,
      "نگءَ": 2427,
      "اوست": 2428,
      "مستر": 2429,
      "دکان": 2430,
      "ندیں": 2431,
      "جْوان": 2432,
      "آہی": 2433,
      "جں": 2434,
      "گوستگ": 2435,
      "شتہ": 2436,
      "تربت": 2437,
      "مہلوک": 2438,
      "جُہ": 2439,
      "گیشتریں": 2440,
      "پاگواجه": 2441,
      "اخ": 2442,
      "هڑ": 2443,
      "پارسی": 2444,
      "کُجام": 2445,
      "عش": 2446,
      "پیسلہ": 2447,
      "الب": 2448,
      "دُنیا": 2449,
      "رجانکار": 2450,
      "کوھنیں": 2451,
      "امر": 2452,
      "ُکّ": 2453,
      "ماھتاک": 2454,
      ")۔": 2455,
      "گیپت": 2456,
      "وست": 2457,
      "انوں": 2458,
      "نادراہ": 2459,
      "واج": 2460,
      "کپوت": 2461,
      "رنگءَ": 2462,
      "پسّہ": 2463,
      "گُشئے": 2464,
      "زیبائی": 2465,
      "تَر": 2466,
      "پانی": 2467,
      "رنگے": 2468,
      "عربی": 2469,
      "کپتگیں": 2470,
      "واس": 2471,
      "پدّر": 2472,
      "گاریں": 2473,
      "رئیس": 2474,
      "بج": 2475,
      "انے": 2476,
      "ستار": 2477,
      "ریا": 2478,
      "نیاں": 2479,
      "واک": 2480,
      "ایشیءِ": 2481,
      "پاداں": 2482,
      "تاکبند": 2483,
      "معنا": 2484,
      "سرے": 2485,
      "ساڑی": 2486,
      "دمانے": 2487,
      "بلکنا": 2488,
      "نءَ": 2489,
      "هگ": 2490,
      "هَـ": 2491,
      "ایدگہ": 2492,
      "صو": 2493,
      "ڈان": 2494,
      "ارت": 2495,
      "روچی": 2496,
      "ایند": 2497,
      "نیمگے": 2498,
      "بسمل": 2499,
      "وھدیکہ": 2500,
      "شوہ": 2501,
      "کوٹ": 2502,
      "۔۔۔۔۔۔۔": 2503,
      "ریگ": 2504,
      "ردیں": 2505,
      "کاڑ": 2506,
      "چراگ": 2507,
      "زام": 2508,
      "سـ": 2509,
      "انتءُ": 2510,
      "باب": 2511,
      "درآ": 2512,
      "ساھ": 2513,
      "مَـ": 2514,
      "حاجی": 2515,
      "براھو": 2516,
      "شرّ": 2517,
      "تالان": 2518,
      "علا": 2519,
      "عمل": 2520,
      "وجی": 2521,
      "گڈی": 2522,
      "نیکہ": 2523,
      "آه": 2524,
      "قص": 2525,
      "پمی": 2526,
      "ێم": 2527,
      "نامہ": 2528,
      "صل": 2529,
      "نزان": 2530,
      "ڈاں": 2531,
      "ریز": 2532,
      "زندمان": 2533,
      "رَند": 2534,
      "اکیڈمی": 2535,
      "ڈار": 2536,
      "چادر": 2537,
      "…………": 2538,
      "عشق": 2539,
      "پمیشا": 2540,
      "جواب": 2541,
      "وَر": 2542,
      "ٹال": 2543,
      "ھپت": 2544,
      "ڈیو": 2545,
      "جود": 2546,
      "ٹیک": 2547,
      "ٹری": 2548,
      "تواری": 2549,
      "ھوال": 2550,
      "مُرگ": 2551,
      "وهد": 2552,
      "بائد": 2553,
      "وطی": 2554,
      "نسی": 2555,
      "ہزار": 2556,
      "ئیءَ": 2557,
      "بلی": 2558,
      "انگہ": 2559,
      "لہتے": 2560,
      "پُلّ": 2561,
      "زہیر": 2562,
      "لڈ": 2563,
      "نگد": 2564,
      "پرے": 2565,
      "گِس": 2566,
      "تچ": 2567,
      "ضل": 2568,
      "پکر": 2569,
      "گنداں": 2570,
      "ابیت": 2571,
      "ڈُ": 2572,
      "داستان": 2573,
      "بنیاد": 2574,
      "عزیز": 2575,
      "لانچ": 2576,
      "پیں": 2577,
      "واح": 2578,
      "بران": 2579,
      "مُل": 2580,
      "نویس": 2581,
      "کاگد": 2582,
      "هست": 2583,
      "وانگی": 2584,
      "زامر": 2585,
      "مڑڈ": 2586,
      "حسین": 2587,
      "ملی": 2588,
      "وئی": 2589,
      "بنداتی": 2590,
      "یران": 2591,
      "درائیں": 2592,
      "پمشکہ": 2593,
      "چرے": 2594,
      "ہست": 2595,
      "اَنچو": 2596,
      "گریت": 2597,
      "گرنچ": 2598,
      "پُتر": 2599,
      "سنگتے": 2600,
      "ھلک": 2601,
      "گُشیت": 2602,
      "اصغر": 2603,
      "فارسی": 2604,
      "ایندگہ": 2605,
      "جـ": 2606,
      "ریش": 2607,
      "ھرچی": 2608,
      "کتگیں": 2609,
      "درستاں": 2610,
      "ٹُ": 2611,
      "ںط": 2612,
      "دیمی": 2613,
      "ریاست": 2614,
      "ھمدا": 2615,
      "سینگ": 2616,
      "آپ": 2617,
      "جمال": 2618,
      "پَد": 2619,
      "ئَ": 2620,
      "رم": 2621,
      "گوان": 2622,
      "نیاد": 2623,
      "مون": 2624,
      "بادشاه": 2625,
      "بْر": 2626,
      "حسن": 2627,
      "ھرا": 2628,
      "ۆڑ": 2629,
      "تیر": 2630,
      "کندگ": 2631,
      "شئر": 2632,
      "پیریں": 2633,
      "شین": 2634,
      "دیمتر": 2635,
      "بَند": 2636,
      "رندءَ": 2637,
      "پولی": 2638,
      "بھی": 2639,
      "كه": 2640,
      "نزانت": 2641,
      "وُ": 2642,
      "اَنـت": 2643,
      "شرگدار": 2644,
      "گالاں": 2645,
      "گِی": 2646,
      "دروگ": 2647,
      "عبداللہ": 2648,
      "شریف": 2649,
      "طر": 2650,
      "اتءُ": 2651,
      "۔۔؟": 2652,
      "گین": 2653,
      "سیٹ": 2654,
      "کنگءِ": 2655,
      "۔۔۔؟": 2656,
      "چیزاں": 2657,
      "کـہ": 2658,
      "ساد": 2659,
      "فون": 2660,
      "هَ": 2661,
      "ۆک": 2662,
      "پیمیں": 2663,
      "کینگ": 2664,
      "سوچ": 2665,
      "تیاب": 2666,
      "زیت": 2667,
      "لمان": 2668,
      "نزاناں": 2669,
      "چاری": 2670,
      "جیگ": 2671,
      "طی": 2672,
      "پدر": 2673,
      "گپّے": 2674,
      "ھاک": 2675,
      "بیران": 2676,
      ":-": 2677,
      "زے": 2678,
      "لشکر": 2679,
      "برجم": 2680,
      "بندگ": 2681,
      "چوناھا": 2682,
      "مھمد": 2683,
      "آنی": 2684,
      "خال": 2685,
      "کچ": 2686,
      "ﺀُ": 2687,
      "لیل": 2688,
      "کپگ": 2689,
      "زاھدہ": 2690,
      "شانت": 2691,
      "وزیر": 2692,
      "ھمی": 2693,
      "جناں": 2694,
      "کشک": 2695,
      "شیت": 2696,
      "غزل": 2697,
      "تاریخ": 2698,
      "سوش": 2699,
      "مسک": 2700,
      "وانند": 2701,
      "جنیں": 2702,
      "فلس": 2703,
      "کلی": 2704,
      "بندوک": 2705,
      "ظفر": 2706,
      "ایے": 2707,
      "لوم": 2708,
      "وانگءَ": 2709,
      "کمال": 2710,
      "سیک": 2711,
      "کیا": 2712,
      "مود": 2713,
      "گِپت": 2714,
      "چوشکہ": 2715,
      "آسک": 2716,
      "گوما": 2717,
      "چاڑ": 2718,
      "کلم": 2719,
      "پِت": 2720,
      "رہبند": 2721,
      "جز": 2722,
      "مط": 2723,
      "مِر": 2724,
      "وفا": 2725,
      "رومن": 2726,
      "ایاں": 2727,
      "اَتک": 2728,
      "نوبت": 2729,
      "گرم": 2730,
      "مہمان": 2731,
      "چیزانی": 2732,
      "آزمانکار": 2733,
      "َـگ": 2734,
      "اڑے": 2735,
      "-،،": 2736,
      "جنو": 2737,
      "زات": 2738,
      "سپت": 2739,
      "شوک": 2740,
      "نشہ": 2741,
      "وراں": 2742,
      "برت": 2743,
      "مردُم": 2744,
      "آیانی": 2745,
      "بدن": 2746,
      "عار": 2747,
      "سرکاری": 2748,
      "سیل": 2749,
      "گُڈا": 2750,
      "کوئ": 2751,
      "بوتگاں": 2752,
      "شرّیں": 2753,
      "آیگ": 2754,
      "تکگ": 2755,
      "بکناں": 2756,
      "ثی": 2757,
      "سبا": 2758,
      "پچے": 2759,
      "اِزم": 2760,
      "ایرانی": 2761,
      "اُمر": 2762,
      "رسم": 2763,
      "لُنٹ": 2764,
      "تنی": 2765,
      "دژمن": 2766,
      "غنی": 2767,
      "چکّ": 2768,
      "زورگ": 2769,
      "شِنگ": 2770,
      "امام": 2771,
      "سج": 2772,
      "نئے": 2773,
      "پتر": 2774,
      "پوش": 2775,
      "ہب": 2776,
      "کُل": 2777,
      "گُد": 2778,
      "گپانی": 2779,
      "وابانی": 2780,
      "شاری": 2781,
      "ـے": 2782,
      "انسانی": 2783,
      "پیسرا": 2784,
      "گُڈی": 2785,
      "دْرست": 2786,
      "رھادگ": 2787,
      "بلکن": 2788,
      "چیدگ": 2789,
      "دَور": 2790,
      "جوڈ": 2791,
      "نبیسّگ": 2792,
      "بوہگ": 2793,
      "پورٹ": 2794,
      "ندکار": 2795,
      "ریکہ": 2796,
      "کنوکیں": 2797,
      "گریوگ": 2798,
      "مالی": 2799,
      "********": 2800,
      "شوہاز": 2801,
      "یور": 2802,
      "ماڑی": 2803,
      "نگا": 2804,
      "دنز": 2805,
      "زھ": 2806,
      "لءِ": 2807,
      "رامین": 2808,
      "دینی": 2809,
      "اسل": 2810,
      "تار": 2811,
      "دزگ": 2812,
      "پجّار": 2813,
      "کاریت": 2814,
      "زبانءَ": 2815,
      "وَش": 2816,
      "گشنت": 2817,
      "نازک": 2818,
      "آتکگ": 2819,
      "آروس": 2820,
      "اُر": 2821,
      "طان": 2822,
      "عظ": 2823,
      "یءَ": 2824,
      "دراتک": 2825,
      "-”": 2826,
      "جے": 2827,
      "مَہ": 2828,
      "هُ": 2829,
      "ِت": 2830,
      "ںت": 2831,
      "ردانک": 2832,
      "نیف": 2833,
      "دیمروئی": 2834,
      "دیت": 2835,
      "شراب": 2836,
      "ہوار": 2837,
      "اِد": 2838,
      "کُٹ": 2839,
      "بود": 2840,
      "کازی": 2841,
      "نامیں": 2842,
      "آواں": 2843,
      "سڑ": 2844,
      "طاں": 2845,
      "مسا": 2846,
      "کمان": 2847,
      "ھوش": 2848,
      "ستگیں": 2849,
      "چاگردءَ": 2850,
      "چِست": 2851,
      "پال": 2852,
      "ڑه": 2853,
      "یم": 2854,
      "”؟": 2855,
      "اَست": 2856,
      "واد": 2857,
      "ایس": 2858,
      "گیا": 2859,
      "جمبر": 2860,
      "آسراتی": 2861,
      "بلاھیں": 2862,
      "وام": 2863,
      "لائی": 2864,
      "بوطگ": 2865,
      "امریکہ": 2866,
      "اێ": 2867,
      "زن": 2868,
      "باس": 2869,
      "پیما": 2870,
      "جندءِ": 2871,
      "گِندگ": 2872,
      "فہ": 2873,
      "پاں": 2874,
      "کیم": 2875,
      "پنجگور": 2876,
      "کوئٹہ": 2877,
      "آرا": 2878,
      "حمل": 2879,
      "حنیف": 2880,
      "دِر": 2881,
      "رگ": 2882,
      "منند": 2883,
      "ردءَ": 2884,
      "ورے": 2885,
      "نزوری": 2886,
      "گریٹ": 2887,
      "سائنس": 2888,
      "بنگیج": 2889,
      "رواج": 2890,
      "بزگ": 2891,
      "کاہ": 2892,
      "بدئے": 2893,
      "لگّ": 2894,
      "یونیور": 2895,
      "آف": 2896,
      "آشو": 2897,
      "اوت": 2898,
      "کارگال": 2899,
      "پیشی": 2900,
      "اودءَ": 2901,
      "زینک": 2902,
      "جنکے": 2903,
      "جہان": 2904,
      "نادراھی": 2905,
      "~~": 2906,
      "آنہ": 2907,
      "زاد": 2908,
      "نمیر": 2909,
      "ُل": 2910,
      "کنائی": 2911,
      "نامی": 2912,
      "ادبی": 2913,
      "ھاھا": 2914,
      "نوکی": 2915,
      "بُرّ": 2916,
      "بـہ": 2917,
      "نمبر": 2918,
      "طار": 2919,
      "غم": 2920,
      "نَہ": 2921,
      "بیانی": 2922,
      "لوی": 2923,
      "کوکار": 2924,
      "بلوچاں": 2925,
      "دُز": 2926,
      "پروفی": 2927,
      "وانینگ": 2928,
      "بیگواہ": 2929,
      "ئێں": 2930,
      "مهر": 2931,
      "کرّ": 2932,
      "یاکہ": 2933,
      "توارے": 2934,
      "بشیر": 2935,
      "چد": 2936,
      "سائی": 2937,
      "گُمان": 2938,
      "مزار": 2939,
      "بدار": 2940,
      "تجر": 2941,
      "لڑ": 2942,
      "شتیں": 2943,
      "درمان": 2944,
      "مُلا": 2945,
      "امباز": 2946,
      "اهل": 2947,
      "گیجگ": 2948,
      "زامرانی": 2949,
      "تپا": 2950,
      "وستان": 2951,
      "پْ": 2952,
      "بیتءُ": 2953,
      "واھ": 2954,
      "دودمان": 2955,
      "بانگ": 2956,
      "دگرے": 2957,
      "بَد": 2958,
      "گشاں": 2959,
      "سارتیں": 2960,
      "تانکہ": 2961,
      "یونیورسٹی": 2962,
      "بهر": 2963,
      "دب": 2964,
      "رسول": 2965,
      "سِی": 2966,
      "نف": 2967,
      "پکی": 2968,
      "کشی": 2969,
      "ۆگه": 2970,
      "مناں": 2971,
      "یکل": 2972,
      "اسٹی": 2973,
      "شرف": 2974,
      "تکان": 2975,
      "پُرس": 2976,
      "روزگار": 2977,
      "دراجیں": 2978,
      "::": 2979,
      "سس": 2980,
      "فق": 2981,
      "َل": 2982,
      "ﺎﻧ": 2983,
      "سیاد": 2984,
      "ھیگ": 2985,
      "بیک": 2986,
      "سرد": 2987,
      "مچ": 2988,
      "”۔": 2989,
      "واڑ": 2990,
      "ایمان": 2991,
      "بَـ": 2992,
      "پادانی": 2993,
      "گَل": 2994,
      "سوشل": 2995,
      "آورتگ": 2996,
      "تس": 2997,
      "صی": 2998,
      "ِشت": 2999,
      "چتور": 3000,
      "اَر": 3001,
      "سریں": 3002,
      "کُتہ": 3003,
      "ساه": 3004,
      "گندیت": 3005,
      "نزور": 3006,
      "آہاں": 3007,
      "خاموش": 3008,
      "سیں": 3009,
      "ورد": 3010,
      "َنت": 3011,
      "ﺑﯿ": 3012,
      "نگاہ": 3013,
      "موبائ": 3014,
      "دپءَ": 3015,
      "رَد": 3016,
      "کایاں": 3017,
      "راھبند": 3018,
      "عاج": 3019,
      "یون": 3020,
      "منچو": 3021,
      "مُچ": 3022,
      "جْوانیں": 3023,
      "زیں": 3024,
      "مءِ": 3025,
      "موت": 3026,
      "پگ": 3027,
      "ۆش": 3028,
      "ناک": 3029,
      "کسّ": 3030,
      "بُت": 3031,
      "کُتگیں": 3032,
      "اێش": 3033,
      "اھوال": 3034,
      "جنا": 3035,
      "ذی": 3036,
      "ذمه": 3037,
      "کءِ": 3038,
      "دوشی": 3039,
      "رندا": 3040,
      "جَت": 3041,
      "گوستگیں": 3042,
      "باروءَ": 3043,
      "حدا": 3044,
      "حبر": 3045,
      "رۆ": 3046,
      "شکیں": 3047,
      "پڈ": 3048,
      "ھیم": 3049,
      "نوش": 3050,
      "مَن": 3051,
      "پوشا": 3052,
      "دیوانے": 3053,
      "کندگے": 3054,
      "براہ": 3055,
      "سگریٹ": 3056,
      "گوار": 3057,
      "برتگ": 3058,
      "گپءَ": 3059,
      "ترّ": 3060,
      "بلوچءِ": 3061,
      "رَو": 3062,
      "ٹولی": 3063,
      "پمن": 3064,
      "ہِ": 3065,
      "جیل": 3066,
      "گالبند": 3067,
      "شپءَ": 3068,
      "تپ": 3069,
      "زاری": 3070,
      "چنڈ": 3071,
      "کد": 3072,
      "چاران": 3073,
      "استال": 3074,
      "گِدار": 3075,
      "آئیءَ": 3076,
      "گْوات": 3077,
      "براھوئی": 3078,
      "ؔءِ": 3079,
      "تھی": 3080,
      "بلێں": 3081,
      "نین": 3082,
      "بیل": 3083,
      "بروت": 3084,
      "لیا": 3085,
      "مارکی": 3086,
      "گالے": 3087,
      "زاہ": 3088,
      "سبزیں": 3089,
      "طارق": 3090,
      "آوانی": 3091,
      "شکاری": 3092,
      "گستا": 3093,
      "یتک": 3094,
      "ھمودا": 3095,
      "مانگ": 3096,
      "تہاری": 3097,
      "گرانیں": 3098,
      "ماری": 3099,
      "بُک": 3100,
      "بُنگ": 3101,
      "لبزانی": 3102,
      "دوستیں": 3103,
      "حاکم": 3104,
      "نِشتگ": 3105,
      "كـ": 3106,
      "نش": 3107,
      "کوه": 3108,
      "کرط": 3109,
      "چمّاں": 3110,
      "دمک": 3111,
      "کالج": 3112,
      "زہر": 3113,
      "دَست": 3114,
      "شئیرانی": 3115,
      "بھار": 3116,
      "سمین": 3117,
      "شع": 3118,
      "غی": 3119,
      "ڑیں": 3120,
      "””": 3121,
      "راھیں": 3122,
      "ناٹک": 3123,
      "جاھاں": 3124,
      "سامان": 3125,
      "دلجم": 3126,
      "کشن": 3127,
      "ّینگ": 3128,
      "بتل": 3129,
      "عبدالحمید": 3130,
      "امی": 3131,
      "صف": 3132,
      "لنگ": 3133,
      "جاہے": 3134,
      "کَشّ": 3135,
      "دمگاں": 3136,
      "دَم": 3137,
      "جوانی": 3138,
      "نندوک": 3139,
      "سکین": 3140,
      "آت": 3141,
      "دئی": 3142,
      "زئی": 3143,
      "درّا": 3144,
      "کُو": 3145,
      "جنوک": 3146,
      "بَل": 3147,
      "نِند": 3148,
      "ایوکا": 3149,
      "نکہ": 3150,
      "هو": 3151,
      "َغ": 3152,
      "گێش": 3153,
      "نادْ": 3154,
      "ناگمان": 3155,
      "دربار": 3156,
      "دوچ": 3157,
      "لاب": 3158,
      "بانُک": 3159,
      "مرزی": 3160,
      "ملکے": 3161,
      "گندئے": 3162,
      "لوگءِ": 3163,
      "گُڈّی": 3164,
      "شات": 3165,
      "کث": 3166,
      "ﺍِ": 3167,
      "گوک": 3168,
      "مہے": 3169,
      "اکبر": 3170,
      "سلمان": 3171,
      "امین": 3172,
      "بھت": 3173,
      "سھب": 3174,
      "گٹ": 3175,
      "یان": 3176,
      "وابے": 3177,
      "تپاک": 3178,
      "نئی": 3179,
      "هیر": 3180,
      "ستاں": 3181,
      "بلہ": 3182,
      "باگ": 3183,
      "ناکیں": 3184,
      "َہہ": 3185,
      "کڑط": 3186,
      "مھمان": 3187,
      "کْوھ": 3188,
      "جُہد": 3189,
      "صت": 3190,
      "بُل": 3191,
      "نامے": 3192,
      "ملکی": 3193,
      "جاہءَ": 3194,
      "کتاباں": 3195,
      "زرّ": 3196,
      "موبائل": 3197,
      "فو": 3198,
      "بام": 3199,
      "چینی": 3200,
      "اَنتءُ": 3201,
      "شرّی": 3202,
      "راجے": 3203,
      "کڑت": 3204,
      "گوئشت": 3205,
      "زو": 3206,
      "زَر": 3207,
      "چیءَ": 3208,
      "کاریں": 3209,
      "پمیشکہ": 3210,
      "هیال": 3211,
      "اناگہ": 3212,
      ")،": 3213,
      "آبادی": 3214,
      "تنگ": 3215,
      "جاں": 3216,
      "خت": 3217,
      "زبر": 3218,
      "پتا": 3219,
      "گنجی": 3220,
      "الع": 3221,
      "میل": 3222,
      "تاھیر": 3223,
      "کرار": 3224,
      "نامدار": 3225,
      "دنیاءِ": 3226,
      "بٹ": 3227,
      "وپس": 3228,
      "ستانی": 3229,
      "چکانی": 3230,
      "زاھر": 3231,
      "ماسٹر": 3232,
      "جمیل": 3233,
      "جبر": 3234,
      "دماں": 3235,
      "هاں": 3236,
      "ڈّی": 3237,
      "سرتاک": 3238,
      "گیوار": 3239,
      "زباناں": 3240,
      "بدیں": 3241,
      "شپے": 3242,
      "ویل": 3243,
      "دوا": 3244,
      "صڑ": 3245,
      "فری": 3246,
      "رازی": 3247,
      "داڑ": 3248,
      "کنڈ": 3249,
      "چارمی": 3250,
      "چاگردءِ": 3251,
      "ـیـں": 3252,
      "ابد": 3253,
      "ثڑ": 3254,
      "شئے": 3255,
      "کَر": 3256,
      "ارزان": 3257,
      "راھے": 3258,
      "دیراں": 3259,
      "چینچو": 3260,
      "توسی": 3261,
      "بلوچے": 3262,
      "ھمائی": 3263,
      "رزا": 3264,
      "طڑ": 3265,
      "پھن": 3266,
      "گرو": 3267,
      "ہءِ": 3268,
      "نگے": 3269,
      "یکّیں": 3270,
      "بیگل": 3271,
      "زندگیں": 3272,
      "سالے": 3273,
      "‘‘۔": 3274,
      "ھھھھ": 3275,
      "عاجز": 3276,
      "جما": 3277,
      "پکار": 3278,
      "بیم": 3279,
      "بہار": 3280,
      "اوپار": 3281,
      "دلوت": 3282,
      "گِپتگ": 3283,
      "ایشیءَ": 3284,
      "نچش": 3285,
      "جهد": 3286,
      "پیمءَ": 3287,
      "دیدگاں": 3288,
      "ثت": 3289,
      "اشار": 3290,
      "دھکان": 3291,
      "سْیاھگ": 3292,
      "تما": 3293,
      "تکن": 3294,
      "سـت": 3295,
      "وبا": 3296,
      "ﮔﻮ": 3297,
      "ﺑﺎ": 3298,
      "دامن": 3299,
      "اسٹ": 3300,
      "ملکاں": 3301,
      "پازل": 3302,
      "اشمی": 3303,
      "ھوں": 3304,
      "اثر": 3305,
      "دائم": 3306,
      "یورپ": 3307,
      "آخ": 3308,
      "صال": 3309,
      "غیر": 3310,
      "مور": 3311,
      "وق": 3312,
      "پج": 3313,
      "پراہ": 3314,
      "چنت": 3315,
      "چات": 3316,
      "مردُ": 3317,
      "باریگ": 3318,
      "اتکاں": 3319,
      "پِس": 3320,
      "جاورانی": 3321,
      "عارف": 3322,
      "تح": 3323,
      "زانی": 3324,
      "شـ": 3325,
      "هبر": 3326,
      "ﻣﻦ": 3327,
      "روڈ": 3328,
      "بارہ": 3329,
      "بِلّ": 3330,
      "پورا": 3331,
      "ادارہ": 3332,
      "چکاس": 3333,
      "ازی": 3334,
      "بح": 3335,
      "بگش": 3336,
      "نواب": 3337,
      "ﺍﻧ": 3338,
      "میرا": 3339,
      "جَنگ": 3340,
      "سلامت": 3341,
      "درآمد": 3342,
      "فلسفہ": 3343,
      "پروفیسر": 3344,
      "آوان": 3345,
      "اجا": 3346,
      "شئی": 3347,
      "مکت": 3348,
      "پھم": 3349,
      "ھڑ": 3350,
      "اتگیں": 3351,
      "ستیں": 3352,
      "روایت": 3353,
      "کُلّ": 3354,
      "مردی": 3355,
      "گْر": 3356,
      "مُرتگ": 3357,
      "تھار": 3358,
      "خَ": 3359,
      "مڑا": 3360,
      "وب": 3361,
      "ّار": 3362,
      "چل": 3363,
      "کشت": 3364,
      "ﮐﮧ": 3365,
      "وتن": 3366,
      "مندی": 3367,
      "اَنچیں": 3368,
      "وران": 3369,
      "کاروان": 3370,
      "برمش": 3371,
      "دوبر": 3372,
      "وکانی": 3373,
      "چاریت": 3374,
      "کتءُ": 3375,
      "کشان": 3376,
      "زمانگءَ": 3377,
      "ہرکس": 3378,
      "راجانی": 3379,
      "پھک": 3380,
      "زوراکی": 3381,
      "بِر": 3382,
      "خُ": 3383,
      "عید": 3384,
      "ٹے": 3385,
      "واکی": 3386,
      "کسّے": 3387,
      "بندیگ": 3388,
      "اِتیں": 3389,
      "چارگءَ": 3390,
      "شرتر": 3391,
      "کتابجاہ": 3392,
      "لّہ": 3393,
      "چُنت": 3394,
      "تُن": 3395,
      "بيت": 3396,
      "شرگداری": 3397,
      "آرام": 3398,
      "دؤر": 3399,
      "رنج": 3400,
      "مکس": 3401,
      "گشی": 3402,
      "سوگ": 3403,
      "پُچ": 3404,
      "نندگ": 3405,
      "مسلمان": 3406,
      "گونڈیں": 3407,
      "آھگ": 3408,
      "آواز": 3409,
      "بئیں": 3410,
      "حل": 3411,
      "متا": 3412,
      "مگر": 3413,
      "ںی": 3414,
      "دیدار": 3415,
      "باھوٹ": 3416,
      "لوار": 3417,
      "گُر": 3418,
      "اُو": 3419,
      "میتگءِ": 3420,
      "لمب": 3421,
      "وتاک": 3422,
      "نسل": 3423,
      "تْران": 3424,
      "قومی": 3425,
      "ھاسیں": 3426,
      "حُ": 3427,
      "پِی": 3428,
      "میاں": 3429,
      "ھمد": 3430,
      "نشتگیں": 3431,
      "بازینے": 3432,
      "وپتگ": 3433,
      "ڈک": 3434,
      "ہوٹ": 3435,
      "انچش": 3436,
      "ہمدا": 3437,
      "فیق": 3438,
      "گونڈو": 3439,
      "اق": 3440,
      "زھی": 3441,
      "ضا": 3442,
      "ـاں": 3443,
      "نپ": 3444,
      "هل": 3445,
      "ٹس": 3446,
      "ٹپ": 3447,
      "ھژ": 3448,
      "۔‘‘": 3449,
      "ڈاڑ": 3450,
      "کِشک": 3451,
      "پنجا": 3452,
      "حکومت": 3453,
      "حَ": 3454,
      "حساب": 3455,
      "زوال": 3456,
      "وپت": 3457,
      "کتر": 3458,
      "ﺍﮮ": 3459,
      "سرم": 3460,
      "درانگ": 3461,
      "شاہی": 3462,
      "ترمپ": 3463,
      "کپتاں": 3464,
      "پاکیں": 3465,
      "ّینت": 3466,
      "وانگجاہ": 3467,
      "رَھ": 3468,
      "گْوشتگ": 3469,
      "فران": 3470,
      "وداریگ": 3471,
      "ہَم": 3472,
      "ھوٹل": 3473,
      "ابدال": 3474,
      "خدا": 3475,
      "هِ": 3476,
      "ونی": 3477,
      "ژنائی": 3478,
      "ردے": 3479,
      "بوتہ": 3480,
      "کُشت": 3481,
      "وکے": 3482,
      "تازی": 3483,
      "اوند": 3484,
      "کامی": 3485,
      "ہرچی": 3486,
      "شُتاں": 3487,
      "دَرو": 3488,
      "پیشانی": 3489,
      "ھچبر": 3490,
      "آزمانکانی": 3491,
      "ساہگ": 3492,
      "علمی": 3493,
      "تّ": 3494,
      "دعا": 3495,
      "لَگ": 3496,
      "پاگ": 3497,
      "ھنچو": 3498,
      "چوکہ": 3499,
      "مردمان": 3500,
      "ساحر": 3501,
      "شامد": 3502,
      "مولوی": 3503,
      "نبشتگیں": 3504,
      "بُوگ": 3505,
      "زندءَ": 3506,
      "نرم": 3507,
      "کوشست": 3508,
      "بادینی": 3509,
      "حمیڈ": 3510,
      "فکر": 3511,
      "چھا": 3512,
      "منظ": 3513,
      "میرو": 3514,
      "لوگے": 3515,
      "زیارت": 3516,
      "بوج": 3517,
      "مارگ": 3518,
      "گْونڈ": 3519,
      "پَچ": 3520,
      "پونز": 3521,
      "عبڈالحمیڈ": 3522,
      "توسیپ": 3523,
      "رپ": 3524,
      "رژن": 3525,
      "شکل": 3526,
      "قہ": 3527,
      "مص": 3528,
      "ینت": 3529,
      "انَ": 3530,
      "نگر": 3531,
      "سام": 3532,
      "گُٹ": 3533,
      "پرچے": 3534,
      "سالاں": 3535,
      "شپاں": 3536,
      "سَوت": 3537,
      "بالاچ": 3538,
      "جَن": 3539,
      "زُل": 3540,
      "پێشامد": 3541,
      "آسکانی": 3542,
      "ببیت": 3543,
      "زنگ": 3544,
      "لنک": 3545,
      "ھلا": 3546,
      "ہہ": 3547,
      "ۆج": 3548,
      "ﺍَ": 3549,
      "اِن": 3550,
      "ریس": 3551,
      "ایط": 3552,
      "اَتاں": 3553,
      "تہر": 3554,
      "گوشدار": 3555,
      "سوبین": 3556,
      "مرچیگیں": 3557,
      "عابد": 3558,
      "اسر": 3559,
      "اھتگ": 3560,
      "سلا": 3561,
      "عالم": 3562,
      "قول": 3563,
      "کردار": 3564,
      "اربی": 3565,
      "ستک": 3566,
      "الکا": 3567,
      "بوتءُ": 3568,
      "دوز": 3569,
      "پیسری": 3570,
      "بانور": 3571,
      "بُز": 3572,
      "بَھر": 3573,
      "جُنز": 3574,
      "بستگیں": 3575,
      "عہد": 3576,
      "آورت": 3577,
      "دِی": 3578,
      "روگءَ": 3579,
      "وڑءَ": 3580,
      "بارگ": 3581,
      "زندے": 3582,
      "سکّیں": 3583,
      "تین": 3584,
      "لگت": 3585,
      "درداں": 3586,
      "سنگتانی": 3587,
      "کِرّ": 3588,
      "اسپیتیں": 3589,
      "جد": 3590,
      "زادگ": 3591,
      "گنگ": 3592,
      "کنے": 3593,
      "واق": 3594,
      "واھند": 3595,
      "توان": 3596,
      "اسم": 3597,
      "دَیگ": 3598,
      "شمبے": 3599,
      "واہگ": 3600,
      "!!!": 3601,
      "ھاترءَ": 3602,
      "موکل": 3603,
      "مرڈماں": 3604,
      "ؔءَ": 3605,
      "ائیر": 3606,
      "شل": 3607,
      "صاد": 3608,
      "مدی": 3609,
      "وپا": 3610,
      "پنت": 3611,
      "ﺑﻠ": 3612,
      "اِنـت": 3613,
      "بلد": 3614,
      "بلاہ": 3615,
      "کارءُ": 3616,
      "دگنیا": 3617,
      "اُشتر": 3618,
      "دربرجاہ": 3619,
      "پنجاہ": 3620,
      "گْوازی": 3621,
      "رئیسی": 3622,
      "کرونا": 3623,
      "درّائینت": 3624,
      "تَہ": 3625,
      "خط": 3626,
      "نشانی": 3627,
      "ڈڑ": 3628,
      "کّی": 3629,
      "گَر": 3630,
      "ﺪﺍ": 3631,
      "ستر": 3632,
      "گوھر": 3633,
      "ئیءِ": 3634,
      "گُنگ": 3635,
      "بوتگءُ": 3636,
      "اثلام": 3637,
      "کلوہ": 3638,
      "مَرگ": 3639,
      "آؤرت": 3640,
      "تءَ": 3641,
      "مڈی": 3642,
      "مروچاں": 3643,
      "پرد": 3644,
      "پنی": 3645,
      "گونا": 3646,
      "شیپ": 3647,
      "دْراج": 3648,
      "لالا": 3649,
      "جۆڑ": 3650,
      "ـں": 3651,
      "ّک": 3652,
      "ٹل": 3653,
      "ﺘﮓ": 3654,
      "روکیں": 3655,
      "سودا": 3656,
      "نبشتانکے": 3657,
      "ورنائیں": 3658,
      "تکنیک": 3659,
      "ّان": 3660,
      "ھز": 3661,
      "میٹر": 3662,
      "دامی": 3663,
      "کسمان": 3664,
      "کوچ": 3665,
      "سوال": 3666,
      "زمانگے": 3667,
      "لوٹگ": 3668,
      "امروز": 3669,
      "گیشیں": 3670,
      "گُشنت": 3671,
      "،،،": 3672,
      "ایوکءَ": 3673,
      "اھت": 3674,
      "بڈ": 3675,
      "شپی": 3676,
      "پات": 3677,
      "ںما": 3678,
      "باڑ": 3679,
      "ھمراھی": 3680,
      "کُشگ": 3681,
      "آئیا": 3682,
      "وشبو": 3683,
      "گندگءَ": 3684,
      "کـن": 3685,
      "رؤت": 3686,
      "اوتاگ": 3687,
      "بێ": 3688,
      "بوتی": 3689,
      "حکم": 3690,
      "شاگ": 3691,
      "پرائی": 3692,
      "گماں": 3693,
      "ﺍﻧﺖ": 3694,
      "اِدءَ": 3695,
      "بیتگیں": 3696,
      "باوست": 3697,
      "کُج": 3698,
      "بُند": 3699,
      "روچانی": 3700,
      "گاه": 3701,
      "چکے": 3702,
      "ھاکم": 3703,
      "ایشرا": 3704,
      "دَنت": 3705,
      "ایوکی": 3706,
      "سہب": 3707,
      "سبزل": 3708,
      "چندے": 3709,
      "انچوشکہ": 3710,
      "آؤرتگ": 3711,
      "عزت": 3712,
      "لنٹ": 3713,
      "چَر": 3714,
      "گھار": 3715,
      "ہلاس": 3716,
      "ﯾﮟ": 3717,
      "ﺮﺍ": 3718,
      "گول": 3719,
      "باڑو": 3720,
      "بریں": 3721,
      "پدریچ": 3722,
      "واراں": 3723,
      "بولی": 3724,
      "کائی": 3725,
      "بِل": 3726,
      "شود": 3727,
      "زلورت": 3728,
      "آئـی": 3729,
      "بزانکہ": 3730,
      "صادق": 3731,
      "پئی": 3732,
      "کتہ": 3733,
      "ھنچش": 3734,
      "سرءُ": 3735,
      "تیلانک": 3736,
      "سُھب": 3737,
      "لوگانی": 3738,
      "لبزانکءِ": 3739,
      "پِڑ": 3740,
      "آزاد": 3741,
      "جاوراں": 3742,
      "گوانکو": 3743,
      "وند": 3744,
      "ارانی": 3745,
      "وائ": 3746,
      "توکا": 3747,
      "اولا": 3748,
      "بندیں": 3749,
      "موہ": 3750,
      "کتیں": 3751,
      "کشّگ": 3752,
      "کَور": 3753,
      "جتائی": 3754,
      "مرید": 3755,
      "ربیت": 3756,
      "سنج": 3757,
      "سروک": 3758,
      "فور": 3759,
      "ھپتگ": 3760,
      "کُنڈ": 3761,
      "جام": 3762,
      "دلے": 3763,
      "بوگءَ": 3764,
      "وشّی": 3765,
      "تکگیں": 3766,
      "دورءَ": 3767,
      "سِنگ": 3768,
      "انسانے": 3769,
      "گالوارانی": 3770,
      "سارت": 3771,
      "کارستانی": 3772,
      "دربرگ": 3773,
      "گْوادر": 3774,
      "بگندئے": 3775,
      "بگل": 3776,
      "سات": 3777,
      "سھت": 3778,
      "قلم": 3779,
      "نکش": 3780,
      "وڈا": 3781,
      "گنا": 3782,
      "انءِ": 3783,
      "اِس": 3784,
      "دراں": 3785,
      "تہار": 3786,
      "کیس": 3787,
      "ھین": 3788,
      "پرما": 3789,
      "کپان": 3790,
      "ازمی": 3791,
      "سَوَ": 3792,
      "رسانک": 3793,
      "***": 3794,
      "پوست": 3795,
      "رُژن": 3796,
      "چمّانی": 3797,
      "ئنت": 3798,
      "میک": 3799,
      "هیں": 3800,
      "ّل": 3801,
      "کج": 3802,
      "انڈ": 3803,
      "انہ": 3804,
      "دید": 3805,
      "بینگ": 3806,
      "بیبگر": 3807,
      "دوار": 3808,
      "دگیں": 3809,
      "مودا": 3810,
      "اسلم": 3811,
      "حکیم": 3812,
      "دڑ": 3813,
      "زمہ": 3814,
      "عاد": 3815,
      "مق": 3816,
      "اَن": 3817,
      "نگل": 3818,
      "یکا": 3819,
      "زیمل": 3820,
      "کام": 3821,
      "سالی": 3822,
      "نڈیں": 3823,
      "آزاتی": 3824,
      "دھمی": 3825,
      "بنگپ": 3826,
      "بگٹی": 3827,
      "ھمیشی": 3828,
      "منظور": 3829,
      "بژن": 3830,
      "سط": 3831,
      "شد": 3832,
      "مِی": 3833,
      "ٔر": 3834,
      "کءُ": 3835,
      "اندیم": 3836,
      "ندات": 3837,
      "نیل": 3838,
      "بیلہ": 3839,
      "کارءِ": 3840,
      "کُشتگ": 3841,
      "جاگ": 3842,
      "دگرانی": 3843,
      "بوھیر": 3844,
      "پاٹی": 3845,
      "سُری": 3846,
      "پَس": 3847,
      "زیرگ": 3848,
      "ارساں": 3849,
      "دراہیں": 3850,
      "بش": 3851,
      "ترو": 3852,
      "دَگ": 3853,
      "ذا": 3854,
      "زوری": 3855,
      "چٹ": 3856,
      "اتا": 3857,
      "گوَ": 3858,
      "ایل": 3859,
      "بزّ": 3860,
      "نون": 3861,
      "بُنگیج": 3862,
      "روچءِ": 3863,
      "گالرد": 3864,
      "استمانی": 3865,
      "دمے": 3866,
      "نفسی": 3867,
      "بگوش": 3868,
      "تژن": 3869,
      "دگی": 3870,
      "شمار": 3871,
      "گلام": 3872,
      "الے": 3873,
      "روح": 3874,
      "ریڈیو": 3875,
      "توں": 3876,
      "دروت": 3877,
      "کنتءُ": 3878,
      "آنکہ": 3879,
      "کرم": 3880,
      "راہی": 3881,
      "بدے": 3882,
      "سالءَ": 3883,
      "ماہناز": 3884,
      "ـــــ": 3885,
      "جنینے": 3886,
      "شعرانی": 3887,
      "یوس": 3888,
      "پێم": 3889,
      "گوازینگ": 3890,
      "آسان": 3891,
      "تم": 3892,
      "هدا": 3893,
      "پوہ": 3894,
      "کہول": 3895,
      "راِ": 3896,
      "اَڑ": 3897,
      "میزان": 3898,
      "ناچ": 3899,
      "دگری": 3900,
      "گرانی": 3901,
      "اسلامی": 3902,
      "جنئگ": 3903,
      "وھدءِ": 3904,
      "پائ": 3905,
      "تیز": 3906,
      "گشے": 3907,
      "کَنَگ": 3908,
      "علاج": 3909,
      "مڑڈماں": 3910,
      "چھاپ": 3911,
      "ابا": 3912,
      "تنے": 3913,
      "دوت": 3914,
      "دانگ": 3915,
      "رءَ": 3916,
      "سئیں": 3917,
      "قدر": 3918,
      "هور": 3919,
      "کوک": 3920,
      "ھاوند": 3921,
      "ﺭﺍ": 3922,
      "ماہی": 3923,
      "بیث": 3924,
      "لون": 3925,
      "وانیت": 3926,
      "مرتگ": 3927,
      "آرت": 3928,
      "براس": 3929,
      "سندھی": 3930,
      "گْوستگیں": 3931,
      "تلو": 3932,
      "فکشن": 3933,
      "پم": 3934,
      "پکا": 3935,
      "یع": 3936,
      "گوریچ": 3937,
      "دیدانک": 3938,
      "کُمک": 3939,
      "پین": 3940,
      "پیری": 3941,
      "واناں": 3942,
      "دارے": 3943,
      "کنگءُ": 3944,
      "رنگی": 3945,
      "درونت": 3946,
      "عرب": 3947,
      "کِرد": 3948,
      "اجبیں": 3949,
      "باتن": 3950,
      "سندھ": 3951,
      "جھلا": 3952,
      "آہیءِ": 3953,
      "واحد": 3954,
      "آد": 3955,
      "برد": 3956,
      "بنڈ": 3957,
      "حمد": 3958,
      "ِن": 3959,
      "گد": 3960,
      "ایمنی": 3961,
      "پیچ": 3962,
      "کسءَ": 3963,
      "آزمان": 3964,
      "شاھگ": 3965,
      "لبزانت": 3966,
      "کتابءِ": 3967,
      "میتگے": 3968,
      "چُنڈ": 3969,
      "پله": 3970,
      "چـہ": 3971,
      "میڈیا": 3972,
      "بئیگ": 3973,
      "بچّ": 3974,
      "تلا": 3975,
      "جگر": 3976,
      "زاتی": 3977,
      "شخ": 3978,
      "صا": 3979,
      "ئیناں": 3980,
      "ردا": 3981,
      "بائی": 3982,
      "ایڈ": 3983,
      "دارو": 3984,
      "ترند": 3985,
      "کپاں": 3986,
      "کمّے": 3987,
      "درامد": 3988,
      "پهک": 3989,
      "ھیالاں": 3990,
      "ھیالانی": 3991,
      "پێشام": 3992,
      "جِند": 3993,
      "درچکانی": 3994,
      "اۆگان": 3995,
      "جگ": 3996,
      "ذات": 3997,
      "عط": 3998,
      "انـی": 3999,
      "روری": 4000,
      "روبا": 4001,
      "بیتاں": 4002,
      "توکءَ": 4003,
      "درْ": 4004,
      "چارت": 4005,
      "سوگند": 4006,
      "جَنَگ": 4007,
      "براھیم": 4008,
      "تهنا": 4009,
      "سنجی": 4010,
      "نویسگ": 4011,
      "کوپگ": 4012,
      "فقیر": 4013,
      "ذاه": 4014,
      "شمو": 4015,
      "وث": 4016,
      "ٹوه": 4017,
      "پاری": 4018,
      "ڑۆ": 4019,
      "گناہ": 4020,
      "یتگ": 4021,
      "لاح": 4022,
      "ہیل": 4023,
      "شپءِ": 4024,
      "واباں": 4025,
      "چاگردے": 4026,
      "مسکرا": 4027,
      "حان": 4028,
      "زھم": 4029,
      "فرا": 4030,
      "وئیل": 4031,
      "“۔": 4032,
      "اِتہ": 4033,
      "وڑی": 4034,
      "پتیں": 4035,
      "کَل": 4036,
      "نزیکی": 4037,
      "مینچو": 4038,
      "پیشرد": 4039,
      "جنگی": 4040,
      "پولکار": 4041,
      "سلامتی": 4042,
      "خیال": 4043,
      "زامات": 4044,
      "جمالدینی": 4045,
      "نئیکہ": 4046,
      "اجازت": 4047,
      "شنز": 4048,
      "غالب": 4049,
      "ھبرے": 4050,
      "ﺎﻥ": 4051,
      "ﻣﺮ": 4052,
      "اتکی": 4053,
      "نہیں": 4054,
      "چیرا": 4055,
      "گیگ": 4056,
      "کوھانی": 4057,
      "کوچگ": 4058,
      "آیاں": 4059,
      "کمبر": 4060,
      "لبزاں": 4061,
      "پیشگال": 4062,
      "سیاھیں": 4063,
      "ملکءَ": 4064,
      "مروچیگیں": 4065,
      "انگریز": 4066,
      "تچکیں": 4067,
      "آوار": 4068,
      "سزا": 4069,
      "غا": 4070,
      "ننگ": 4071,
      "ڈگه": 4072,
      "ھردو": 4073,
      "ہاشمی": 4074,
      "اِنط": 4075,
      "ماگ": 4076,
      "یکروچے": 4077,
      "جاک": 4078,
      "کیف": 4079,
      "دارانی": 4080,
      "شیش": 4081,
      "دلب": 4082,
      "مرز": 4083,
      "پرک": 4084,
      "گرمیں": 4085,
      "مارات": 4086,
      "نامگال": 4087,
      "چکاں": 4088,
      "پادا": 4089,
      "ُکے": 4090,
      "لوٹائی": 4091,
      "میتگءَ": 4092,
      "پُرّ": 4093,
      "ھُشک": 4094,
      "کـُ": 4095,
      "گـُـ": 4096,
      "====": 4097,
      "پوشاک": 4098,
      "آھ": 4099,
      "سمی": 4100,
      "عَ": 4101,
      "قبر": 4102,
      "نڈی": 4103,
      "يك": 4104,
      "ِنگ": 4105,
      "ھرام": 4106,
      "انق": 4107,
      "منّگ": 4108,
      "روانیں": 4109,
      "بہرے": 4110,
      "تامُر": 4111,
      "بانزل": 4112,
      "دلبند": 4113,
      "اسپ": 4114,
      "دَپ": 4115,
      "حید": 4116,
      "چِہ": 4117,
      "پارٹی": 4118,
      "اصلام": 4119,
      "کبرستان": 4120,
      "پکیر": 4121,
      "تھت": 4122,
      "تعلی": 4123,
      "ثال": 4124,
      "دێم": 4125,
      "ذل": 4126,
      "شیک": 4127,
      "صدی": 4128,
      "عاش": 4129,
      "ںیا": 4130,
      "ھمنچو": 4131,
      "۱۹": 4132,
      "اَنگ": 4133,
      "ریل": 4134,
      "دابے": 4135,
      "جین": 4136,
      "سوز": 4137,
      "شرتریں": 4138,
      "اُردو": 4139,
      "سُہر": 4140,
      "پَٹ": 4141,
      "کّہ": 4142,
      "فرق": 4143,
      "دِگہ": 4144,
      "ھندی": 4145,
      "لرز": 4146,
      "اُرش": 4147,
      "گیابان": 4148,
      "آباں": 4149,
      "جمہ": 4150,
      "رفیق": 4151,
      "منتگ": 4152,
      "ُکی": 4153,
      "سرجمی": 4154,
      "تاکے": 4155,
      "سازی": 4156,
      "دگراں": 4157,
      "ھید": 4158,
      "مرک": 4159,
      "مولا": 4160,
      "پتری": 4161,
      "کَس": 4162,
      "پسنی": 4163,
      "مَٹ": 4164,
      "فیس": 4165,
      "گریو": 4166,
      "مھراب": 4167,
      "وڈیں": 4168,
      "سپتال": 4169,
      "دَہ": 4170,
      "دُک": 4171,
      "سلاہ": 4172,
      "صاف": 4173,
      "قَ": 4174,
      "ڈێم": 4175,
      "گز": 4176,
      "ھلاپ": 4177,
      "ردوم": 4178,
      "بوتنت": 4179,
      "لوگی": 4180,
      "کیل": 4181,
      "دلمانگ": 4182,
      "موشی": 4183,
      "مزہ": 4184,
      "سالانی": 4185,
      "تاکاں": 4186,
      "کِرا": 4187,
      "پریات": 4188,
      "بلوچستانءِ": 4189,
      "شاعرے": 4190,
      "نیامءَ": 4191,
      "دنیگا": 4192,
      "بیانیہ": 4193,
      "پئیم": 4194,
      "تَرّ": 4195,
      "فظ": 4196,
      "لذ": 4197,
      "نق": 4198,
      "کشتگ": 4199,
      "گوشی": 4200,
      "نیار": 4201,
      "دوچار": 4202,
      "پیژ": 4203,
      "گدارے": 4204,
      "الّمی": 4205,
      "کستریں": 4206,
      "لیاقت": 4207,
      "ئو": 4208,
      "اپی": 4209,
      "جَہ": 4210,
      "سمو": 4211,
      "عث": 4212,
      "چِی": 4213,
      "کمر": 4214,
      "منّت": 4215,
      "نداں": 4216,
      "گوانک": 4217,
      "دیگر": 4218,
      "رویں": 4219,
      "کامری": 4220,
      "کمّ": 4221,
      "گندیں": 4222,
      "شُد": 4223,
      "شُمئے": 4224,
      "درواز": 4225,
      "٭٭٭": 4226,
      "درائینت": 4227,
      "یاتانی": 4228,
      "کِرّا": 4229,
      "نظام": 4230,
      "گھتر": 4231,
      "نزّیک": 4232,
      ".”": 4233,
      "جب": 4234,
      "سَگ": 4235,
      "فل": 4236,
      "هزار": 4237,
      "ﮐﻨ": 4238,
      "راھاں": 4239,
      "نادر": 4240,
      "ھمگرنچ": 4241,
      "کُنٹ": 4242,
      "وکیل": 4243,
      "اومان": 4244,
      "دیمترا": 4245,
      "گْوھ": 4246,
      "زانشت": 4247,
      "آیان": 4248,
      "سُور": 4249,
      "پَشت": 4250,
      "سَـ": 4251,
      "وہدی": 4252,
      "گُشاں": 4253,
      "چیاکہ": 4254,
      "گردن": 4255,
      "مجیب": 4256,
      "؟!": 4257,
      "اٙ": 4258,
      "ابدل": 4259,
      "تچان": 4260,
      "خیر": 4261,
      "َگی": 4262,
      "پلا": 4263,
      "ڈنی": 4264,
      "ۆن": 4265,
      "۲۰": 4266,
      "انو": 4267,
      "نازینک": 4268,
      "اِنتءُ": 4269,
      "آر": 4270,
      "ّیگ": 4271,
      "دُچار": 4272,
      "ھستی": 4273,
      "پلاں": 4274,
      "قادر": 4275,
      "پانزدہ": 4276,
      "بْرات": 4277,
      "شہی": 4278,
      "صفت": 4279,
      "لئی": 4280,
      "نعی": 4281,
      "ہال": 4282,
      "ماسی": 4283,
      "ایراد": 4284,
      "کائ": 4285,
      "دستے": 4286,
      "نیادی": 4287,
      "سُہ": 4288,
      "سُھر": 4289,
      "گْوز": 4290,
      "تَل": 4291,
      "مالوم": 4292,
      "سمبر": 4293,
      "عیسی": 4294,
      "بدی": 4295,
      "حض": 4296,
      "دئیں": 4297,
      "دواز": 4298,
      "زہی": 4299,
      "صد": 4300,
      "ٹھی": 4301,
      "ڈس": 4302,
      "کص": 4303,
      "گزر": 4304,
      "ھنی": 4305,
      "ھسا": 4306,
      "اتوں": 4307,
      "دیمر": 4308,
      "دوئین": 4309,
      "لوگاں": 4310,
      "ڈیه": 4311,
      "شپانک": 4312,
      "مدان": 4313,
      "ھیالءَ": 4314,
      "پلانی": 4315,
      "گِرگ": 4316,
      "سائنسی": 4317,
      "گوادرءَ": 4318,
      "ئن": 4319,
      "باتی": 4320,
      "حوال": 4321,
      "نێ": 4322,
      "نسیم": 4323,
      "پٹّ": 4324,
      "ںڈ": 4325,
      "یڈ": 4326,
      "اندا": 4327,
      "گولی": 4328,
      "لوہ": 4329,
      "ہمیں": 4330,
      "پُٹ": 4331,
      "بالا": 4332,
      "نکان": 4333,
      "گْوشان": 4334,
      "ائید": 4335,
      "کںگ": 4336,
      "پُشتءَ": 4337,
      "دابیں": 4338,
      "گوازینتگ": 4339,
      "سیمسر": 4340,
      "وسیلہ": 4341,
      "پاگواجهاں": 4342,
      "ئش": 4343,
      "سعید": 4344,
      "عن": 4345,
      "وجود": 4346,
      "وحید": 4347,
      "گڑاں": 4348,
      "آھانی": 4349,
      "کرز": 4350,
      "کائے": 4351,
      "وشھال": 4352,
      "کَم": 4353,
      "کِش": 4354,
      "شونی": 4355,
      "ملکانی": 4356,
      "جاگہے": 4357,
      "مڑدماں": 4358,
      "چمشانکے": 4359,
      "کامریڈ": 4360,
      "آشنا": 4361,
      "بءِ": 4362,
      "سه": 4363,
      "ملام": 4364,
      "پھر": 4365,
      "چھ": 4366,
      "ھوت": 4367,
      "ھکّ": 4368,
      "اِیر": 4369,
      "بیتیں": 4370,
      "بیدار": 4371,
      "اینت": 4372,
      "مانیت": 4373,
      "گُڑ": 4374,
      "گوشکند": 4375,
      "سالا": 4376,
      "سالونک": 4377,
      "زادی": 4378,
      "گلزمین": 4379,
      "جنگءَ": 4380,
      "گیشّ": 4381,
      "پتگیں": 4382,
      "شنل": 4383,
      "بوھگءَ": 4384,
      "دزبندی": 4385,
      "ڈولدار": 4386,
      "ابیتکی": 4387,
      "یوسف": 4388,
      "اشتر": 4389,
      "دن": 4390,
      "دپتری": 4391,
      "ُش": 4392,
      "ٹگ": 4393,
      "چھر": 4394,
      "ھجبر": 4395,
      "رورت": 4396,
      "نیز": 4397,
      "ناکی": 4398,
      "ناصر": 4399,
      "واکاں": 4400,
      "دوکان": 4401,
      "گرے": 4402,
      "کمپنی": 4403,
      "بدنت": 4404,
      "نزر": 4405,
      "پَـ": 4406,
      "برابر": 4407,
      "فاضل": 4408,
      "ژناگ": 4409,
      "برکتی": 4410,
      "آنہی": 4411,
      "نعیم": 4412,
      "تھل": 4413,
      "فَ": 4414,
      "ودر": 4415,
      "َو": 4416,
      "ﺗﺎ": 4417,
      "رودر": 4418,
      "رداد": 4419,
      "نیمون": 4420,
      "کارگس": 4421,
      "درس": 4422,
      "گیچین": 4423,
      "مردءَ": 4424,
      "زید": 4425,
      "جیڑاں": 4426,
      "نِشت": 4427,
      "متلب": 4428,
      "تھاری": 4429,
      "منتگیں": 4430,
      "تکانسر": 4431,
      "بگیر": 4432,
      "رخ": 4433,
      "طو": 4434,
      "هان": 4435,
      "ّں": 4436,
      "گاری": 4437,
      "گٹی": 4438,
      "شتے": 4439,
      "یکرندے": 4440,
      "میری": 4441,
      "ھمود": 4442,
      "ایی": 4443,
      "کونڈ": 4444,
      "کمتر": 4445,
      "پتار": 4446,
      "کلیں": 4447,
      "راجءِ": 4448,
      "فیض": 4449,
      "مستاگ": 4450,
      "پلگار": 4451,
      "گپّاں": 4452,
      "ورنائی": 4453,
      "وهڈے": 4454,
      "شِیر": 4455,
      "ھِچ": 4456,
      "مَـرد": 4457,
      "آهانی": 4458,
      "پچےکه": 4459,
      "آشوب": 4460,
      "العلوم": 4461,
      "پھنات": 4462,
      "سَوَب": 4463,
      "دع": 4464,
      "دسمبر": 4465,
      "زتک": 4466,
      "زگریں": 4467,
      "شف": 4468,
      "شست": 4469,
      "لت": 4470,
      "ير": 4471,
      "چگل": 4472,
      "ہون": 4473,
      "یش": 4474,
      "۔(": 4475,
      "۔“": 4476,
      "ﮐﻮ": 4477,
      "ﺩﺍ": 4478,
      "یتکگ": 4479,
      "ندگ": 4480,
      "میاری": 4481,
      "باج": 4482,
      "پہک": 4483,
      "ساعت": 4484,
      "گپءُ": 4485,
      "زیب": 4486,
      "موجود": 4487,
      "بلوچیءَ": 4488,
      "راہءَ": 4489,
      "نوکری": 4490,
      "جمعہ": 4491,
      "ساچشتی": 4492,
      "چَم": 4493,
      "نّت": 4494,
      "ھنکین": 4495,
      "سیاہگ": 4496,
      "ڈنءَ": 4497,
      "مساپر": 4498,
      "تپاوت": 4499,
      "ﺍَﻧﺖ": 4500,
      "بوتین": 4501,
      "ثط": 4502,
      "سئی": 4503,
      "شوکیں": 4504,
      "لج": 4505,
      "وو": 4506,
      "ٹُک": 4507,
      "گن": 4508,
      "ہان": 4509,
      "ہبر": 4510,
      "ۆکاں": 4511,
      "ماھی": 4512,
      "بلکه": 4513,
      "روانی": 4514,
      "درچ": 4515,
      "اگن": 4516,
      "بزور": 4517,
      "کشار": 4518,
      "چمے": 4519,
      "جُنزان": 4520,
      "گواہ": 4521,
      "جوڑی": 4522,
      "رُو": 4523,
      "چَمّ": 4524,
      "بچکے": 4525,
      ",,,": 4526,
      "کارستے": 4527,
      "مجگ": 4528,
      "نبیسّ": 4529,
      "دیمروہی": 4530,
      "مھلب": 4531,
      "نویسی": 4532,
      "زیبائیں": 4533,
      "دلبڈی": 4534,
      "،”": 4535,
      "اع": 4536,
      "ابو": 4537,
      "زّت": 4538,
      "زَرّ": 4539,
      "شموش": 4540,
      "غیں": 4541,
      "لن": 4542,
      "مبو": 4543,
      "کمار": 4544,
      "نتہ": 4545,
      "گوزگ": 4546,
      "مائی": 4547,
      "باھو": 4548,
      "ورانی": 4549,
      "سرڈگار": 4550,
      "موسی": 4551,
      "نبشتار": 4552,
      "بُندر": 4553,
      "ازت": 4554,
      "پچیں": 4555,
      "شعرے": 4556,
      "لکھ": 4557,
      "وَتـی": 4558,
      "خالق": 4559,
      "جنوری": 4560,
      "رَھبند": 4561,
      "کسمانک": 4562,
      "؟‘‘": 4563,
      "حقی": 4564,
      "سوا": 4565,
      "شعری": 4566,
      "لکی": 4567,
      "ڑان": 4568,
      "کح": 4569,
      "ھَر": 4570,
      "ہمودا": 4571,
      "دیگءَ": 4572,
      "روئے": 4573,
      "روگی": 4574,
      "روباہ": 4575,
      "بامرد": 4576,
      "لازم": 4577,
      "بارے": 4578,
      "ملّا": 4579,
      "زانیں": 4580,
      "رسگ": 4581,
      "بھرے": 4582,
      "کوہنیں": 4583,
      "زمستان": 4584,
      "مںی": 4585,
      "سببءَ": 4586,
      "ادیب": 4587,
      "کلمتی": 4588,
      "؟۔": 4589,
      "آھی": 4590,
      "ؤکیں": 4591,
      "جوش": 4592,
      "رسی": 4593,
      "شوانگ": 4594,
      "عد": 4595,
      "قان": 4596,
      "قاسم": 4597,
      "نیکیں": 4598,
      "چال": 4599,
      "ڈِ": 4600,
      "یَـ": 4601,
      "بابا": 4602,
      "ھمو": 4603,
      "وکاں": 4604,
      "بزگی": 4605,
      "شازادگ": 4606,
      "کَے": 4607,
      "لّیں": 4608,
      "سُبک": 4609,
      "دُراہ": 4610,
      "ھندوستان": 4611,
      "ہچبر": 4612,
      "عیب": 4613,
      "زاهدان": 4614,
      "~~~~": 4615,
      "نمیرانیں": 4616,
      "پتاد": 4617,
      "بلاہیں": 4618,
      "ذلفی": 4619,
      "ابی": 4620,
      "جور": 4621,
      "زمی": 4622,
      "شبیر": 4623,
      "هُـ": 4624,
      "وشتر": 4625,
      "چما": 4626,
      "ھنچیں": 4627,
      "کنَگ": 4628,
      "دیمے": 4629,
      "دیمپان": 4630,
      "گرک": 4631,
      "کّے": 4632,
      "نکاں": 4633,
      "جَـ": 4634,
      "جهگی": 4635,
      "پوسٹ": 4636,
      "چُکانی": 4637,
      "ھَو": 4638,
      "پنچمی": 4639,
      "زاهڈان": 4640,
      "تچگ": 4641,
      "جانی": 4642,
      "سپ": 4643,
      "شھم": 4644,
      "ّلی": 4645,
      "ٹمنٹ": 4646,
      "پْر": 4647,
      "ڈیک": 4648,
      "کلام": 4649,
      "اَل": 4650,
      "وابی": 4651,
      "کیوبا": 4652,
      "اومر": 4653,
      "واریں": 4654,
      "مارچ": 4655,
      "کشّا": 4656,
      "پاکی": 4657,
      "ڈیوان": 4658,
      "پُشتی": 4659,
      "رندی": 4660,
      "زوریت": 4661,
      "اصل": 4662,
      "سوبمند": 4663,
      "ڈگارانی": 4664,
      "نورشاہ": 4665,
      "ھسابءَ": 4666,
      "بُرزیں": 4667,
      "رحمن": 4668,
      "ہوٹل": 4669,
      "پێشامڈ": 4670,
      ").": 4671,
      "اپری": 4672,
      "حانی": 4673,
      "سئیل": 4674,
      "شَرّ": 4675,
      "هون": 4676,
      "وثی": 4677,
      "ہمی": 4678,
      "اندو": 4679,
      "ارشاد": 4680,
      "رابی": 4681,
      "درسد": 4682,
      "کُچک": 4683,
      "تہاریں": 4684,
      "دلاں": 4685,
      "ترک": 4686,
      "نباں": 4687,
      "کاپر": 4688,
      "وڑێں": 4689,
      "زندان": 4690,
      "پتءَ": 4691,
      "ملکءِ": 4692,
      "انسانءِ": 4693,
      "گالوارے": 4694,
      "بیرانی": 4695,
      "رحمان": 4696,
      "نالوجی": 4697,
      "اشتاپ": 4698,
      "شخص": 4699,
      ":”": 4700,
      "آھتگ": 4701,
      "بب": 4702,
      "بجن": 4703,
      "ثار": 4704,
      "حون": 4705,
      "خلی": 4706,
      "دش": 4707,
      "رر": 4708,
      "شکا": 4709,
      "طها": 4710,
      "مظ": 4711,
      "پءَ": 4712,
      "پالی": 4713,
      "چرس": 4714,
      "گێ": 4715,
      "گوھار": 4716,
      "اَنط": 4717,
      "چہر": 4718,
      "سیلان": 4719,
      "چاراِت": 4720,
      "ّینتگ": 4721,
      "اتکگیں": 4722,
      "کُتیں": 4723,
      "اشاد": 4724,
      "اشکنگ": 4725,
      "سالءِ": 4726,
      "مَل": 4727,
      "سُہب": 4728,
      "تواراں": 4729,
      "سَک": 4730,
      "۔۔۔۔۔۔۔۔۔": 4731,
      "چُکاں": 4732,
      "چِن": 4733,
      "دردانی": 4734,
      "پولکاری": 4735,
      "پیداگ": 4736,
      "شہرے": 4737,
      "تلار": 4738,
      "بائڈ": 4739,
      "مثال": 4740,
      "ٹیکنالوجی": 4741,
      "مارکیٹ": 4742,
      "ھزمت": 4743,
      "امیر": 4744,
      "تءُ": 4745,
      "تَگ": 4746,
      "جءَ": 4747,
      "سِر": 4748,
      "مصط": 4749,
      "مدامی": 4750,
      "ٹھ": 4751,
      "گنت": 4752,
      "ھشک": 4753,
      "ﺩﻭ": 4754,
      "گوری": 4755,
      "روی": 4756,
      "ایچ": 4757,
      "جاھی": 4758,
      "ساوڑ": 4759,
      "اوگان": 4760,
      "کَپ": 4761,
      "‘‘،": 4762,
      "گلیں": 4763,
      "سَے": 4764,
      "جهان": 4765,
      "کپتگاں": 4766,
      "…….": 4767,
      "کارمرزی": 4768,
      "!!!!": 4769,
      "پولیس": 4770,
      "اکرم": 4771,
      "امارات": 4772,
      "بشک": 4773,
      "شِی": 4774,
      "فِ": 4775,
      "نءِ": 4776,
      "نزینک": 4777,
      "وے": 4778,
      "وات": 4779,
      "ویران": 4780,
      "يت": 4781,
      "پژ": 4782,
      "ڈیں": 4783,
      "گڑی": 4784,
      "ھدے": 4785,
      "ﻧﺎ": 4786,
      "بلّے": 4787,
      "ردان": 4788,
      "سرءِ": 4789,
      "دائی": 4790,
      "ادراه": 4791,
      "بےانت": 4792,
      "پرشت": 4793,
      "گاماں": 4794,
      "گوشدارگ": 4795,
      "نامگ": 4796,
      "بَلّ": 4797,
      "ماتیں": 4798,
      "ھالاں": 4799,
      "جیڑھے": 4800,
      "ساچگ": 4801,
      "نگیجی": 4802,
      "جاهے": 4803,
      "کراچیءَ": 4804,
      "گُلزار": 4805,
      "ھزاراں": 4806,
      "دلا": 4807,
      "صلہ": 4808,
      "عالی": 4809,
      "ﺳﺘ": 4810,
      "میڑ": 4811,
      "نیر": 4812,
      "نیٹ": 4813,
      "ایف": 4814,
      "ادہ": 4815,
      "اوپ": 4816,
      "دلکش": 4817,
      "بندے": 4818,
      "یازدہ": 4819,
      "وشّیں": 4820,
      "فرنس": 4821,
      "مھرل": 4822,
      "وطن": 4823,
      "پُترت": 4824,
      "شئرانی": 4825,
      "ٹوهێں": 4826,
      "ءٓ": 4827,
      "توا": 4828,
      "صورت": 4829,
      "نیکی": 4830,
      "وزی": 4831,
      "ڈه": 4832,
      "ھری": 4833,
      "یاتاں": 4834,
      "انج": 4835,
      "میگ": 4836,
      "نازی": 4837,
      "چوک": 4838,
      "جاوی": 4839,
      "پیسرءَ": 4840,
      "پرس": 4841,
      "ُکیں": 4842,
      "کَسے": 4843,
      "امبر": 4844,
      "بِندات": 4845,
      "محمود": 4846,
      "مشکت": 4847,
      "همےپێم": 4848,
      "نماسگ": 4849,
      "نـادراه": 4850,
      "تلب": 4851,
      "نیکراھی": 4852,
      "ــــــــــــــــ": 4853,
      "ابرم": 4854,
      "________________": 4855,
      "سلیمان": 4856,
      "مکتب": 4857,
      "گوناپ": 4858,
      "ثتان": 4859,
      "جری": 4860,
      "حیر": 4861,
      "فن": 4862,
      "ِش": 4863,
      "پنڈ": 4864,
      "چلی": 4865,
      "منارا": 4866,
      "ماحل": 4867,
      "روا": 4868,
      "باذ": 4869,
      "باض": 4870,
      "ھمبل": 4871,
      "دوئیناں": 4872,
      "چول": 4873,
      "اگر": 4874,
      "کرّا": 4875,
      "مردمءَ": 4876,
      "موٹر": 4877,
      "بُگش": 4878,
      "مُش": 4879,
      "زانئے": 4880,
      "شُتیں": 4881,
      "مَرد": 4882,
      "میران": 4883,
      "تاکانی": 4884,
      "،،،،": 4885,
      "دردے": 4886,
      "نّاں": 4887,
      "کوہانی": 4888,
      "اُستمانی": 4889,
      "کاگدے": 4890,
      "نسیب": 4891,
      "ﺎﻧﯽ": 4892,
      "سوگات": 4893,
      "اژ": 4894,
      "دي": 4895,
      "ّانی": 4896,
      "ھؤ": 4897,
      "انور": 4898,
      "دیوک": 4899,
      "ورگءَ": 4900,
      "کارچ": 4901,
      "کُن": 4902,
      "تہہ": 4903,
      "ساڑا": 4904,
      "شاء": 4905,
      "بلوچءَ": 4906,
      "کاٹ": 4907,
      "بلوچیءِ": 4908,
      "مُک": 4909,
      "زانش": 4910,
      "آزمانکے": 4911,
      "دمانی": 4912,
      "ھوری": 4913,
      "پرواہ": 4914,
      "یکےءَ": 4915,
      "حاصل": 4916,
      "نندیت": 4917,
      "بنرھبند": 4918,
      "گوْشت": 4919,
      "رؤگ": 4920,
      "گنجیں": 4921,
      "کرنل": 4922,
      "موتک": 4923,
      "سرمچار": 4924,
      "اپس": 4925,
      "بژ": 4926,
      "تانی": 4927,
      "طانی": 4928,
      "مض": 4929,
      "مچک": 4930,
      "نْ": 4931,
      "نزیر": 4932,
      "پیک": 4933,
      "پھل": 4934,
      "چیت": 4935,
      "ڑح": 4936,
      "راگ": 4937,
      "ماڑ": 4938,
      "نگن": 4939,
      "رودی": 4940,
      "باش": 4941,
      "توکل": 4942,
      "درے": 4943,
      "درگیج": 4944,
      "تاپ": 4945,
      "ساگر": 4946,
      "انگل": 4947,
      "کلچر": 4948,
      "اتکیں": 4949,
      "توارءَ": 4950,
      "گُشے": 4951,
      "شهر": 4952,
      "لمبر": 4953,
      "چُکے": 4954,
      "چَک": 4955,
      "اِتگیں": 4956,
      "مجبور": 4957,
      "دائمی": 4958,
      "کستر": 4959,
      "بنیادم": 4960,
      "نمیران": 4961,
      "ﺍِﻧﺖ": 4962,
      "):": 4963,
      "عُ": 4964,
      "مصر": 4965,
      "گّ": 4966,
      "گدان": 4967,
      "گراب": 4968,
      "نگءِ": 4969,
      "روسی": 4970,
      "میا": 4971,
      "ایمن": 4972,
      "سیہ": 4973,
      "کُہ": 4974,
      "گُشان": 4975,
      "دلیں": 4976,
      "وارے": 4977,
      "کپنت": 4978,
      "بُگٹی": 4979,
      "روچگ": 4980,
      "دستانی": 4981,
      "نزوریں": 4982,
      "ماتءَ": 4983,
      "مَنّ": 4984,
      "سَند": 4985,
      "سَکّ": 4986,
      "دُرا": 4987,
      "جَل": 4988,
      "راستے": 4989,
      "چِلّ": 4990,
      "ھُب": 4991,
      "رُژنا": 4992,
      "چندیں": 4993,
      "زالبولانی": 4994,
      "قرآن": 4995,
      "ہندوستان": 4996,
      "ائولی": 4997,
      "ریگزار": 4998,
      "بِلّے": 4999,
      "دوئینانی": 5000,
      "آدگہ": 5001,
      "آسے": 5002,
      "روتاک": 5003,
      "زه": 5004,
      "نمب": 5005,
      "یب": 5006,
      "ﺩﯾ": 5007,
      "نازر": 5008,
      "دراتکگ": 5009,
      "درکپت": 5010,
      "دوری": 5011,
      "کوم": 5012,
      "بندانی": 5013,
      "بوس": 5014,
      "گْران": 5015,
      "اسد": 5016,
      "اسما": 5017,
      "جنز": 5018,
      "دَرد": 5019,
      "پسند": 5020,
      "گلگ": 5021,
      "دُزّ": 5022,
      "سیاھ": 5023,
      "شودگ": 5024,
      "گالواراں": 5025,
      "نورخان": 5026,
      "بچکندے": 5027,
      "گوازینت": 5028,
      "مھلوکءِ": 5029,
      "مذہب": 5030,
      "صوفی": 5031,
      "امبازاں": 5032,
      "جاگھے": 5033,
      "عطاشاد": 5034,
      "کـُـر": 5035,
      "عثمان": 5036,
      "شہید": 5037,
      "اپریل": 5038,
      "سدی": 5039,
      "مخ": 5040,
      "مئیل": 5041,
      "هے": 5042,
      "وشت": 5043,
      "چور": 5044,
      "ۆر": 5045,
      "یی": 5046,
      "ېں": 5047,
      "الاثلام": 5048,
      "روزی": 5049,
      "یکءَ": 5050,
      "میم": 5051,
      "میجر": 5052,
      "نیگ": 5053,
      "ورءَ": 5054,
      "کنط": 5055,
      "گُھار": 5056,
      "انکیں": 5057,
      "بُرو": 5058,
      "ہیال": 5059,
      "دَرا": 5060,
      "دُمب": 5061,
      "بِزاں": 5062,
      "معلوم": 5063,
      "گنوکی": 5064,
      "نیکراہ": 5065,
      "پڑءَ": 5066,
      "۔۔۔۔۔۔۔۔۔۔۔۔۔۔۔۔۔۔۔۔۔۔۔۔۔۔۔۔۔۔۔۔": 5067,
      "تْرند": 5068,
      "ئـی": 5069,
      "تتک": 5070,
      "دپی": 5071,
      "سمیر": 5072,
      "ظاه": 5073,
      "لھ": 5074,
      "لھم": 5075,
      "هار": 5076,
      "َم": 5077,
      "پشو": 5078,
      "پشک": 5079,
      "ڈگ": 5080,
      "بلکہ": 5081,
      "چونائی": 5082,
      "جاڑ": 5083,
      "شید": 5084,
      "دلانی": 5085,
      "بزّگ": 5086,
      "پرپٹ": 5087,
      "بوٹ": 5088,
      "گْوان": 5089,
      "کشیت": 5090,
      "مُری": 5091,
      "جہہ": 5092,
      "ڈین": 5093,
      "ٹین": 5094,
      "وَشّ": 5095,
      "رندگیری": 5096,
      "گلزار": 5097,
      "جیڑھ": 5098,
      "بِی": 5099,
      "گَرد": 5100,
      "عبدالعزیز": 5101,
      "کوریں": 5102,
      "تنکہ": 5103,
      "سلیمانی": 5104,
      "آہیءَ": 5105,
      "مارکیز": 5106,
      "بُنگپ": 5107,
      "شئیری": 5108,
      "عاشق": 5109,
      "؟،،": 5110,
      "آست": 5111,
      "تڑ": 5112,
      "تنک": 5113,
      "حیران": 5114,
      "دچار": 5115,
      "رکش": 5116,
      "سست": 5117,
      "كت": 5118,
      "ِک": 5119,
      "کہیر": 5120,
      "اتون": 5121,
      "کُم": 5122,
      "پیو": 5123,
      "کیسگ": 5124,
      "دلجمی": 5125,
      "دگاں": 5126,
      "شادی": 5127,
      "موس": 5128,
      "کاڑی": 5129,
      "گوشک": 5130,
      "وابءَ": 5131,
      "گْوستگ": 5132,
      "پِگر": 5133,
      "پیرزال": 5134,
      "بازارءَ": 5135,
      "میڈیکل": 5136,
      "بلائیں": 5137,
      "زانتکاریں": 5138,
      "آجوئی": 5139,
      "دزگھار": 5140,
      "بجار": 5141,
      "تءِ": 5142,
      "عند": 5143,
      "ين": 5144,
      "ّءَ": 5145,
      "ٹگل": 5146,
      "ںگ": 5147,
      "ھرو": 5148,
      "ﺳﺮ": 5149,
      "ﻨﺪ": 5150,
      "اَبید": 5151,
      "ماھل": 5152,
      "ماسگ": 5153,
      "روپ": 5154,
      "نیاتکگ": 5155,
      "دران": 5156,
      "مردیں": 5157,
      "گپءِ": 5158,
      "دلپروش": 5159,
      "آس": 5160,
      "نودر": 5161,
      "کپتیں": 5162,
      "کپودر": 5163,
      "گوشنت": 5164,
      "جُو": 5165,
      "کَن": 5166,
      "گِیر": 5167,
      "دمکاں": 5168,
      "پیشکانی": 5169,
      "سنگی": 5170,
      "جَلّ": 5171,
      "دْراھیں": 5172,
      "زوراں": 5173,
      "جتیں": 5174,
      "جُستے": 5175,
      "جاگہءَ": 5176,
      "تھنائی": 5177,
      "مـاں": 5178,
      "پێش": 5179,
      "درشانداب": 5180,
      "بنگالی": 5181,
      "کـَـنـت": 5182,
      "تپاکی": 5183,
      "اوپسالا": 5184,
      "اھ": 5185,
      "بـی": 5186,
      "طہ": 5187,
      "فروری": 5188,
      "مشین": 5189,
      "َک": 5190,
      "کچک": 5191,
      "ﺳﯿ": 5192,
      "مندر": 5193,
      "الاج": 5194,
      "اَلی": 5195,
      "اَلّ": 5196,
      "مینگل": 5197,
      "کارو": 5198,
      "مردک": 5199,
      "شیشگ": 5200,
      "زیند": 5201,
      "لبزے": 5202,
      "پتءِ": 5203,
      "اتکگاں": 5204,
      "راجاں": 5205,
      "راجدپتری": 5206,
      "زراں": 5207,
      "لبزانکءَ": 5208,
      "دیواناں": 5209,
      "دنیاءَ": 5210,
      "زُور": 5211,
      "تَو": 5212,
      "سِند": 5213,
      "بنکی": 5214,
      "شَپ": 5215,
      "شاهو": 5216,
      "ڈالچار": 5217,
      "فاروق": 5218,
      "حکومط": 5219,
      "ٹِکّ": 5220,
      "اقبال": 5221,
      "دیمرئی": 5222,
      "عندلیب": 5223,
      "ئا": 5224,
      "جیک": 5225,
      "دئینت": 5226,
      "رپورٹ": 5227,
      "سنچ": 5228,
      "فٹ": 5229,
      "لعل": 5230,
      "نپر": 5231,
      "ُمی": 5232,
      "ٹیکی": 5233,
      "پتو": 5234,
      "ڈرا": 5235,
      "ﮬﻤ": 5236,
      "ارسی": 5237,
      "ارواح": 5238,
      "اِشی": 5239,
      "اِنچو": 5240,
      "رول": 5241,
      "توئے": 5242,
      "توری": 5243,
      "توبر": 5244,
      "گُٹّ": 5245,
      "کوھاں": 5246,
      "بزگیں": 5247,
      "پداں": 5248,
      "نوشتہ": 5249,
      "بولے": 5250,
      "ٹیسٹ": 5251,
      "کَیت": 5252,
      "ایریں": 5253,
      "بیتگاں": 5254,
      "رَنگ": 5255,
      "فیصلہ": 5256,
      "ـتـ": 5257,
      "سِیا": 5258,
      "آسپ": 5259,
      "پریشانی": 5260,
      "زگاری": 5261,
      "ھانل": 5262,
      "سارتی": 5263,
      "شوھازگ": 5264,
      "کماشیں": 5265,
      "ارزانی": 5266,
      "شَرّیں": 5267,
      "نودربراں": 5268,
      "اختر": 5269,
      "دْراجیں": 5270,
      "نفسیات": 5271,
      "مَـردُم": 5272,
      "گنتر": 5273,
      "جناز": 5274,
      "حب": 5275,
      "رش": 5276,
      "زری": 5277,
      "شیں": 5278,
      "شرو": 5279,
      "شانگ": 5280,
      "ششمی": 5281,
      "شلوار": 5282,
      "فضل": 5283,
      "ٹـ": 5284,
      "چیک": 5285,
      "ڈێ": 5286,
      "انکس": 5287,
      "نگیگ": 5288,
      "بیگا": 5289,
      "چوٹ": 5290,
      "تاچی": 5291,
      "ادری": 5292,
      "لوان": 5293,
      "لیلو": 5294,
      "اوّلی": 5295,
      "کود": 5296,
      "کرسی": 5297,
      "پدانک": 5298,
      "بارک": 5299,
      "گاڑ": 5300,
      "جنکّ": 5301,
      "جنکاں": 5302,
      "مُد": 5303,
      "راہاں": 5304,
      "کَنت": 5305,
      "پَل": 5306,
      "سنگتی": 5307,
      "جنگے": 5308,
      "دُژمن": 5309,
      "رَنـ": 5310,
      "ھستیں": 5311,
      "ِیگ": 5312,
      "پارک": 5313,
      "مُرگانی": 5314,
      "بکنیں": 5315,
      "ارسانی": 5316,
      "نـہ": 5317,
      "دودءُ": 5318,
      "نادراہی": 5319,
      "سینگار": 5320,
      "ۆکێں": 5321,
      "!‘‘": 5322,
      "آسو": 5323,
      "أت": 5324,
      "سھ": 5325,
      "پمّ": 5326,
      "ڈوک": 5327,
      "ہوا": 5328,
      "الحاق": 5329,
      "اَط": 5330,
      "نیاتک": 5331,
      "دوک": 5332,
      "کاف": 5333,
      "بُنی": 5334,
      "بُوان": 5335,
      "دستی": 5336,
      "مُرد": 5337,
      "ایراں": 5338,
      "میرل": 5339,
      "اِشانی": 5340,
      "کانود": 5341,
      "رُستگ": 5342,
      "چَکّ": 5343,
      "مُرتگیں": 5344,
      "لهتے": 5345,
      "کُرتگءُ": 5346,
      "اکتوبر": 5347,
      "دروشمے": 5348,
      "گپتگیں": 5349,
      "آئرا": 5350,
      "بوھان": 5351,
      "سیمسراں": 5352,
      "کوپگاں": 5353,
      "امریکا": 5354,
      "برانز": 5355,
      "لُنٹانی": 5356,
      "اشارہ": 5357,
      "صدیق": 5358,
      "ابدلستار": 5359,
      "اھد": 5360,
      "بئی": 5361,
      "بــ": 5362,
      "بباں": 5363,
      "تبا": 5364,
      "ذمہ": 5365,
      "زرورت": 5366,
      "سنی": 5367,
      "غُ": 5368,
      "قدیر": 5369,
      "نِی": 5370,
      "وژ": 5371,
      "پک": 5372,
      "وتئی": 5373,
      "داخ": 5374,
      "بیمار": 5375,
      "براتاں": 5376,
      "درگ": 5377,
      "دریں": 5378,
      "دویں": 5379,
      "اَتکگ": 5380,
      "مردمءِ": 5381,
      "دیمءِ": 5382,
      "پرمات": 5383,
      "ماریا": 5384,
      "تیل": 5385,
      "ھاموشی": 5386,
      "لّو": 5387,
      "ماتءِ": 5388,
      "پیشدارگ": 5389,
      "دنتان": 5390,
      "شوه": 5391,
      "سِتک": 5392,
      "اِتاںءُ": 5393,
      "تُری": 5394,
      "مـن": 5395,
      "واھگانی": 5396,
      "وزن": 5397,
      "یَکّ": 5398,
      "وفات": 5399,
      "کلیر": 5400,
      "بَـنـت": 5401,
      "گْرنچ": 5402,
      "سامگی": 5403,
      "گْوھار": 5404,
      "آپی": 5405,
      "رڈ": 5406,
      "زنڈیں": 5407,
      "سءِ": 5408,
      "طے": 5409,
      "قبیلہ": 5410,
      "َّگ": 5411,
      "ٹپی": 5412,
      "ڈکّ": 5413,
      "—-": 5414,
      "کہنیں": 5415,
      "منءُ": 5416,
      "ندے": 5417,
      "ماڈی": 5418,
      "بازین": 5419,
      "ناماں": 5420,
      "توجیل": 5421,
      "برءَ": 5422,
      "دوم": 5423,
      "کُٹّ": 5424,
      "جائی": 5425,
      "کوئی": 5426,
      "پرمان": 5427,
      "کشکے": 5428,
      "مُنیر": 5429,
      "َہی": 5430,
      "ہرچ": 5431,
      "جُم": 5432,
      "پوری": 5433,
      "دیوانءَ": 5434,
      "کسےءَ": 5435,
      "بیدگی": 5436,
      "رُمب": 5437,
      "مُرت": 5438,
      "علیه": 5439,
      "دمانءَ": 5440,
      "زِرد": 5441,
      "شاعرانی": 5442,
      "زَن": 5443,
      "دْرچک": 5444,
      "————————": 5445,
      "باسکوپ": 5446,
      "سسّا": 5447,
      "کْوھنیں": 5448,
      "راِنت": 5449,
      "ابراھیم": 5450,
      "تمپ": 5451,
      "جک": 5452,
      "خار": 5453,
      "رکّ": 5454,
      "رِی": 5455,
      "زلم": 5456,
      "زهر": 5457,
      "زبانی": 5458,
      "طه": 5459,
      "ـک": 5460,
      "مڈ": 5461,
      "هساب": 5462,
      "وپ": 5463,
      "ڈنگ": 5464,
      "کنا": 5465,
      "کوا": 5466,
      "گــ": 5467,
      "اِنّاں": 5468,
      "یکدار": 5469,
      "ردانکی": 5470,
      "سرزمین": 5471,
      "چیل": 5472,
      "واھشت": 5473,
      "بہشت": 5474,
      "کُشی": 5475,
      "کُلیں": 5476,
      "شاھ": 5477,
      "زیان": 5478,
      "بوئگ": 5479,
      "کتاں": 5480,
      "باراں": 5481,
      "گوشے": 5482,
      "جنزان": 5483,
      "بَس": 5484,
      "گشاد": 5485,
      "مدت": 5486,
      "ماہتاک": 5487,
      "شوم": 5488,
      "نبشتانکانی": 5489,
      "طاقت": 5490,
      "کںط": 5491,
      "۔۔۔!‘‘": 5492,
      "گیشینگ": 5493,
      "اِیش": 5494,
      "مذہ": 5495,
      "پروازؔ": 5496,
      "تجربہ": 5497,
      "::::": 5498,
      "جاوید": 5499,
      "آط": 5500,
      "اٹ": 5501,
      "ائیں": 5502,
      "سسا": 5503,
      "صۆگه": 5504,
      "فدا": 5505,
      "قط": 5506,
      "قدیم": 5507,
      "مجا": 5508,
      "نّی": 5509,
      "ٹءَ": 5510,
      "پنگ": 5511,
      "ڈلگ": 5512,
      "ژند": 5513,
      "کدر": 5514,
      "کواس": 5515,
      "ﭼﯽ": 5516,
      "ﯾﮏ": 5517,
      "منہ": 5518,
      "گوزان": 5519,
      "ماھے": 5520,
      "روژنا": 5521,
      "روبرکتی": 5522,
      "یکین": 5523,
      "باھند": 5524,
      "ھمرائی": 5525,
      "لاه": 5526,
      "مرتگیں": 5527,
      "بازێں": 5528,
      "داتءُ": 5529,
      "جہاز": 5530,
      "شرت": 5531,
      "ُکانی": 5532,
      "جاہاں": 5533,
      "زوریں": 5534,
      "حیدر": 5535,
      "جندءَ": 5536,
      "آرتگ": 5537,
      "نبیسی": 5538,
      "جارج": 5539,
      "سبک": 5540,
      "پاکستانی": 5541,
      "درچکے": 5542,
      "رحمه": 5543,
      "ساھتے": 5544,
      "ابرمی": 5545,
      "زھگاں": 5546,
      "جھلاوان": 5547,
      "کائنات": 5548,
      "؟،": 5549,
      "آذ": 5550,
      "آزگ": 5551,
      "ؤں": 5552,
      "ئند": 5553,
      "امان": 5554,
      "دێ": 5555,
      "رژنا": 5556,
      "زلے": 5557,
      "سہی": 5558,
      "سروز": 5559,
      "شَہ": 5560,
      "ظہور": 5561,
      "لماں": 5562,
      "مــ": 5563,
      "نبیت": 5564,
      "ٹنگ": 5565,
      "پڑا": 5566,
      "کسا": 5567,
      "ہل": 5568,
      "ہشت": 5569,
      "ہنچو": 5570,
      "منگ": 5571,
      "دیریں": 5572,
      "ھمُک": 5573,
      "ھمزہ": 5574,
      "ھمساھگ": 5575,
      "بیزار": 5576,
      "وائے": 5577,
      "جاح": 5578,
      "لاج": 5579,
      "ترکی": 5580,
      "سوبی": 5581,
      "مُز": 5582,
      "پاڑ": 5583,
      "ڈیگ": 5584,
      "همراه": 5585,
      "نزہ": 5586,
      "نزیکیں": 5587,
      "رنداں": 5588,
      "دَؤر": 5589,
      "وانگءِ": 5590,
      "گواچ": 5591,
      "گوازین": 5592,
      "ننداں": 5593,
      "سگّ": 5594,
      "بستارے": 5595,
      "چیرءَ": 5596,
      "سوبمندی": 5597,
      "آدمءِ": 5598,
      "دودانی": 5599,
      "زوراک": 5600,
      "قلات": 5601,
      "بگندے": 5602,
      "جںێں": 5603,
      "دُنیاءِ": 5604,
      "دُزّی": 5605,
      "غیبی": 5606,
      "مگرب": 5607,
      "درانگاز": 5608,
      "دوازدہ": 5609,
      "آترا": 5610,
      "ئت": 5611,
      "اڑی": 5612,
      "بَگ": 5613,
      "ثنا": 5614,
      "خر": 5615,
      "رضا": 5616,
      "زبیر": 5617,
      "نجو": 5618,
      "کروس": 5619,
      "گزل": 5620,
      "ہوش": 5621,
      "ہاترا": 5622,
      "ﺍﺭ": 5623,
      "ﺑﺮ": 5624,
      "انشپی": 5625,
      "اِست": 5626,
      "یکمی": 5627,
      "باظ": 5628,
      "داغ": 5629,
      "بیس": 5630,
      "بیھال": 5631,
      "وائی": 5632,
      "درگیجگ": 5633,
      "لیگ": 5634,
      "ساچی": 5635,
      "آسر": 5636,
      "وارث": 5637,
      "ماریت": 5638,
      "شتگاں": 5639,
      "ڈیل": 5640,
      "ھاٹی": 5641,
      "اشکتگ": 5642,
      "جانشو": 5643,
      "دمگانی": 5644,
      "پَٹّ": 5645,
      "ھیرانی": 5646,
      "آسمان": 5647,
      "کـار": 5648,
      "پٹءُ": 5649,
      "نشتگاں": 5650,
      "شاعراں": 5651,
      "شگان": 5652,
      "تهل": 5653,
      "پھریز": 5654,
      "چریشاں": 5655,
      "سپاھی": 5656,
      "گِیش": 5657,
      "دبئی": 5658,
      "ابدمان": 5659,
      "درانگازی": 5660,
      "انقلاب": 5661,
      "مچکدگ": 5662,
      "؛؛": 5663,
      "تنا": 5664,
      "ثہ": 5665,
      "جیں": 5666,
      "رپت": 5667,
      "زَہ": 5668,
      "سبر": 5669,
      "عقل": 5670,
      "مدر": 5671,
      "مئیں": 5672,
      "مخال": 5673,
      "نانی": 5674,
      "نعر": 5675,
      "ّاس": 5676,
      "گلو": 5677,
      "گلاس": 5678,
      "گۆش": 5679,
      "ںا": 5680,
      "ﻣﻨ": 5681,
      "ءََ": 5682,
      "گوزی": 5683,
      "گوھرام": 5684,
      "دیار": 5685,
      "وانندہ": 5686,
      "ھرکسی": 5687,
      "بزیں": 5688,
      "آزاتی": 5689,
      "شاکر": 5690,
      "بوئ": 5691,
      "باران": 5692,
      "زمانگاں": 5693,
      "ٹیبل": 5694,
      "زانتکاری": 5695,
      "گاراں": 5696,
      "نیستی": 5697,
      "وانگجاه": 5698,
      "گوراں": 5699,
      "ھیالے": 5700,
      "لسانی": 5701,
      "زالبولے": 5702,
      "جنکانی": 5703,
      "سیاہیں": 5704,
      "مندیں": 5705,
      "ڈولیں": 5706,
      "چوناہا": 5707,
      "بھتی": 5708,
      "ماھکان": 5709,
      "نُوں": 5710,
      "اۆگاں": 5711,
      "یونین": 5712,
      "دشتار": 5713,
      "وَرَگ": 5714,
      "پْروش": 5715,
      "ھژدری": 5716,
      "ﺑﻠﻮ": 5717,
      "پلاٹ": 5718,
      "اوگانستان": 5719,
      ":۔": 5720,
      "[]": 5721,
      "ءٍ": 5722,
      "شبین": 5723,
      "صتان": 5724,
      "ـن": 5725,
      "لاین": 5726,
      "مڈّی": 5727,
      "نثار": 5728,
      "همیش": 5729,
      "ھلیل": 5730,
      "انٹر": 5731,
      "اِشت": 5732,
      "گوٛ": 5733,
      "گواز": 5734,
      "الاسلام": 5735,
      "کنز": 5736,
      "وانیں": 5737,
      "زیات": 5738,
      "پرستی": 5739,
      "کاست": 5740,
      "کاڑے": 5741,
      "گوشئے": 5742,
      "کتگءُ": 5743,
      "ڈیرہ": 5744,
      "زانتءُ": 5745,
      "دَز": 5746,
      "جنگانی": 5747,
      "ھالی": 5748,
      "ھالے": 5749,
      "وہدءَ": 5750,
      "چِل": 5751,
      "کندیل": 5752,
      "مھلہ": 5753,
      "مھروان": 5754,
      "زردیں": 5755,
      "پندل": 5756,
      "اشتاپی": 5757,
      "ریکار": 5758,
      "یونانی": 5759,
      "مکسد": 5760,
      "ملامت": 5761,
      "شوهاز": 5762,
      "آک": 5763,
      "تپر": 5764,
      "جدگ": 5765,
      "حوری": 5766,
      "سءَ": 5767,
      "سۆگه": 5768,
      "عیل": 5769,
      "لکّ": 5770,
      "مۆ": 5771,
      "مقا": 5772,
      "ونگ": 5773,
      "ویر": 5774,
      "کات": 5775,
      "ھنگ": 5776,
      "ﻨﺖ": 5777,
      "راس": 5778,
      "اِںط": 5779,
      "الف": 5780,
      "میرین": 5781,
      "نیشنل": 5782,
      "توس": 5783,
      "تہی": 5784,
      "لوری": 5785,
      "آباد": 5786,
      "ُرّ": 5787,
      "یاگی": 5788,
      "چارات": 5789,
      "کاپی": 5790,
      "کمّو": 5791,
      "پاشک": 5792,
      "ارینگ": 5793,
      "جمبراں": 5794,
      "پُش": 5795,
      "رنگانی": 5796,
      "بسّ": 5797,
      "آپءِ": 5798,
      "جهڈ": 5799,
      "اِشک": 5800,
      "گریب": 5801,
      "مالک": 5802,
      "اتکگءُ": 5803,
      "مِھر": 5804,
      "جنینانی": 5805,
      "چوناھی": 5806,
      "پورہ": 5807,
      "تـو": 5808,
      "جنجالانی": 5809,
      "قرار": 5810,
      "٭٭٭٭٭٭٭٭٭٭٭٭٭٭٭٭": 5811,
      "وفاط": 5812,
      "ریاض": 5813,
      "لئیب": 5814,
      "مصطفی": 5815,
      "آگ": 5816,
      "آوکیں": 5817,
      "تھے": 5818,
      "تَـ": 5819,
      "ثۆ": 5820,
      "سانک": 5821,
      "نع": 5822,
      "وچ": 5823,
      "چنگ": 5824,
      "ڈکال": 5825,
      "ڑانی": 5826,
      "کھر": 5827,
      "ہلک": 5828,
      "ہسپتال": 5829,
      "ءَرا": 5830,
      "اتانی": 5831,
      "الاصلام": 5832,
      "نگار": 5833,
      "یکٹر": 5834,
      "میزاں": 5835,
      "ریزگ": 5836,
      "ردءُ": 5837,
      "رداں": 5838,
      "واھُ": 5839,
      "تولگ": 5840,
      "برٹ": 5841,
      "پیرو": 5842,
      "آدم": 5843,
      "آماچ": 5844,
      "ھینت": 5845,
      "موٹ": 5846,
      "چاروک": 5847,
      "پرچی": 5848,
      "کپتی": 5849,
      "بُہ": 5850,
      "اسپی": 5851,
      "کشءَ": 5852,
      "ازاب": 5853,
      "ھاموش": 5854,
      "آپءَ": 5855,
      "دورے": 5856,
      "جَتگ": 5857,
      "سرپدیں": 5858,
      "زُلم": 5859,
      "زمینءِ": 5860,
      "ھُشتر": 5861,
      "مُرگے": 5862,
      "لَبز": 5863,
      ",,,,": 5864,
      "پاساں": 5865,
      "آنلاین": 5866,
      "بچکندگ": 5867,
      "کشّیت": 5868,
      "جلالی": 5869,
      "دبئیءَ": 5870,
      "روباه": 5871,
      "--": 5872,
      "أنت": 5873,
      "تپاس": 5874,
      "دبی": 5875,
      "زِی": 5876,
      "شھید": 5877,
      "فراز": 5878,
      "مؔ": 5879,
      "مف": 5880,
      "نل": 5881,
      "ومی": 5882,
      "ولا": 5883,
      "ڈری": 5884,
      "کــ": 5885,
      "گسر": 5886,
      "ںد": 5887,
      "ھڈ": 5888,
      "ہمنچو": 5889,
      "—–": 5890,
      "ﺗﯽ": 5891,
      "ارب": 5892,
      "الہ": 5893,
      "بایڈ": 5894,
      "نیّت": 5895,
      "کارمستر": 5896,
      "کنٹ": 5897,
      "توپان": 5898,
      "پہنات": 5899,
      "لیپ": 5900,
      "لینڈ": 5901,
      "شیا": 5902,
      "گُشی": 5903,
      "کنگے": 5904,
      "زیا": 5905,
      "زیشن": 5906,
      "بندن": 5907,
      "ترْ": 5908,
      "بےانط": 5909,
      "راہءُ": 5910,
      "بَست": 5911,
      "کلب": 5912,
      "کَند": 5913,
      "ماتے": 5914,
      "آیوکیں": 5915,
      "مَلّ": 5916,
      "سُنٹ": 5917,
      "سَری": 5918,
      "دُراھیں": 5919,
      "آپے": 5920,
      "دانش": 5921,
      "والی": 5922,
      "بدلءَ": 5923,
      "واستءَ": 5924,
      "مِکّ": 5925,
      "تُنّ": 5926,
      "بُنکی": 5927,
      "ھبراں": 5928,
      "وانین": 5929,
      "ھنر": 5930,
      "گُلیں": 5931,
      "شاعریءِ": 5932,
      "مکرانی": 5933,
      "شالکوٹ": 5934,
      "امریکی": 5935,
      "یَـک": 5936,
      "ھمودءَ": 5937,
      "انگلش": 5938,
      "آیا": 5939,
      "خاص": 5940,
      "دلو": 5941,
      "ربیدگی": 5942,
      "صلاح": 5943,
      "ضاه": 5944,
      "لَـ": 5945,
      "مهم": 5946,
      "نئیں": 5947,
      "ٹکّ": 5948,
      "چت": 5949,
      "ڑگ": 5950,
      "ھونک": 5951,
      "ھپتاد": 5952,
      "ہوں": 5953,
      "یتءُ": 5954,
      "رائ": 5955,
      "راک": 5956,
      "میدان": 5957,
      "سردی": 5958,
      "سرشون": 5959,
      "بوتوں": 5960,
      "برپ": 5961,
      "درءَ": 5962,
      "درپش": 5963,
      "مانشانت": 5964,
      "دولت": 5965,
      "کیمپ": 5966,
      "دارایت": 5967,
      "دلگوشی": 5968,
      "ترندیں": 5969,
      "ڑاه": 5970,
      "نومبر": 5971,
      "بوجی": 5972,
      "نامانی": 5973,
      "جنێن": 5974,
      "کمپیو": 5975,
      "زمانگءِ": 5976,
      "چکیں": 5977,
      "پاہ": 5978,
      "تیاری": 5979,
      "اتکءُ": 5980,
      "دَی": 5981,
      "نیاما": 5982,
      "رَدی": 5983,
      "بِنا": 5984,
      "کِشت": 5985,
      "چُل": 5986,
      "پُرشتگیں": 5987,
      "زُوت": 5988,
      "سِیر": 5989,
      "زندگیءِ": 5990,
      "پارٹمنٹ": 5991,
      "عبدالمجید": 5992,
      "شہرءَ": 5993,
      "چنکس": 5994,
      "مارشتاں": 5995,
      "کمیٹی": 5996,
      "دْرستیں": 5997,
      "كـَ": 5998,
      "واقعہ": 5999,
      "هُـون": 6000,
      "توامیں": 6001,
      "آبانی": 6002,
      "رب": 6003,
      "سرین": 6004,
      "عباس": 6005,
      "قید": 6006,
      "مستان": 6007,
      "نئیل": 6008,
      "ٹّی": 6009,
      "ٹاپ": 6010,
      "پلی": 6011,
      "پجّ": 6012,
      "چَگ": 6013,
      "چَـ": 6014,
      "چۆں": 6015,
      "ھشکیں": 6016,
      "منو": 6017,
      "گوْر": 6018,
      "ئیکی": 6019,
      "اَںط": 6020,
      "ریءَ": 6021,
      "نازین": 6022,
      "وتیگ": 6023,
      "بیب": 6024,
      "بیگہ": 6025,
      "برف": 6026,
      "درنگ": 6027,
      "درشانی": 6028,
      "چوکیں": 6029,
      "کُک": 6030,
      "جاھ": 6031,
      "پینٹ": 6032,
      "گپور": 6033,
      "اگست": 6034,
      "موٹل": 6035,
      "چارگی": 6036,
      "بوو": 6037,
      "بُـ": 6038,
      "۔۔۔‘‘": 6039,
      "سراوان": 6040,
      "سرائیکی": 6041,
      "پاھو": 6042,
      "ٹیلی": 6043,
      "پتال": 6044,
      "ھائی": 6045,
      "کَنگ": 6046,
      "استیں": 6047,
      "جانءَ": 6048,
      "واجہءَ": 6049,
      "دروہ": 6050,
      "دروگیں": 6051,
      "سُروز": 6052,
      "ھالیگ": 6053,
      "روانبد": 6054,
      "رھشون": 6055,
      "زمینءَ": 6056,
      "پلان": 6057,
      "اوشتوک": 6058,
      "شعراں": 6059,
      "وهدی": 6060,
      "شیرکنیں": 6061,
      "سارتر": 6062,
      "اشیءِ": 6063,
      "افسان": 6064,
      "زہگ": 6065,
      "سائٹی": 6066,
      "شونکار": 6067,
      "نمازءَ": 6068,
      "نظم": 6069,
      "تپنگ": 6070,
      "پَسّو": 6071,
      "پائدگ": 6072,
      "وہدیکہ": 6073,
      "حضرت": 6074,
      "نێمگ": 6075,
      "کمپیوٹر": 6076,
      "آری": 6077,
      "ابن": 6078,
      "جھانی": 6079,
      "سکار": 6080,
      "سکول": 6081,
      "سواد": 6082,
      "عه": 6083,
      "غاں": 6084,
      "ـان": 6085,
      "مٹّ": 6086,
      "نَر": 6087,
      "هانی": 6088,
      "ژَ": 6089,
      "کھیر": 6090,
      "کٹّ": 6091,
      "”،": 6092,
      "ﺍﯾ": 6093,
      "اندری": 6094,
      "نتءُ": 6095,
      "ستمبر": 6096,
      "اَے": 6097,
      "اَںت": 6098,
      "بینک": 6099,
      "پہریز": 6100,
      "لاش": 6101,
      "کسھے": 6102,
      "مرت": 6103,
      "پدّ": 6104,
      "گرمی": 6105,
      "داتہ": 6106,
      "بلوچیں": 6107,
      "ایرگیجگ": 6108,
      "دومیءَ": 6109,
      "زاہر": 6110,
      "سنگے": 6111,
      "گہار": 6112,
      "دْراہ": 6113,
      "ــــــ": 6114,
      "گَڑ": 6115,
      "نّوں": 6116,
      "ورناہ": 6117,
      "دِہ": 6118,
      "ھَور": 6119,
      "اجب": 6120,
      "تبک": 6121,
      "تُرند": 6122,
      "معاشی": 6123,
      "موسمے": 6124,
      "شائرے": 6125,
      "دُرّا": 6126,
      "مارشتانی": 6127,
      "پراموش": 6128,
      "آهاں": 6129,
      "ابیتک": 6130,
      "واھگے": 6131,
      "نوشکی": 6132,
      "وائرس": 6133,
      "اَنچوش": 6134,
      "رودراتکی": 6135,
      "میاریگ": 6136,
      "شخصیت": 6137,
      "پالیسی": 6138,
      ".,": 6139,
      ".»": 6140,
      "امن": 6141,
      "بمب": 6142,
      "ثیا": 6143,
      "جات": 6144,
      "جدی": 6145,
      "رل": 6146,
      "رھم": 6147,
      "زْر": 6148,
      "سھر": 6149,
      "لق": 6150,
      "لِی": 6151,
      "هند": 6152,
      "َڑ": 6153,
      "ِیت": 6154,
      "ّن": 6155,
      "پجا": 6156,
      "پَگ": 6157,
      "انگر": 6158,
      "ئید": 6159,
      "رون": 6160,
      "مینی": 6161,
      "داگ": 6162,
      "ایو": 6163,
      "ایگ": 6164,
      "پہم": 6165,
      "گیٹ": 6166,
      "گیشت": 6167,
      "تہنائی": 6168,
      "سازگ": 6169,
      "کوھن": 6170,
      "بندر": 6171,
      "پرشتگیں": 6172,
      "وارڈ": 6173,
      "گوشطگ": 6174,
      "سوسائٹی": 6175,
      "دستون": 6176,
      "چمگ": 6177,
      "چمّے": 6178,
      "راجءَ": 6179,
      "شُمارا": 6180,
      "جانءِ": 6181,
      "نڈگ": 6182,
      "مَند": 6183,
      "سُو": 6184,
      "کّا": 6185,
      "آزمانکءِ": 6186,
      "حیات": 6187,
      "ساچان": 6188,
      "جستے": 6189,
      "گُشتانک": 6190,
      "ویڈیو": 6191,
      "چَپ": 6192,
      "ھواری": 6193,
      "دینار": 6194,
      "شہرءِ": 6195,
      "ازمکار": 6196,
      "حالاں": 6197,
      "نزیکءَ": 6198,
      "گچێں": 6199,
      "مھلوکءَ": 6200,
      "جنجالاں": 6201,
      "گوْش": 6202,
      "نادراھ": 6203,
      "منزلءَ": 6204,
      "تْرا": 6205,
      "پـہ": 6206,
      "میراث": 6207,
      "اسماعیل": 6208,
      "آبد": 6209,
      "اشا": 6210,
      "رھی": 6211,
      "رَگ": 6212,
      "رَہ": 6213,
      "سواری": 6214,
      "سستگیں": 6215,
      "شہم": 6216,
      "علام": 6217,
      "عکسے": 6218,
      "عدلی": 6219,
      "نکی": 6220,
      "نگور": 6221,
      "ِل": 6222,
      "پي": 6223,
      "پوت": 6224,
      "پما": 6225,
      "چیں": 6226,
      "کما": 6227,
      "ﺑﻮ": 6228,
      "اند": 6229,
      "انّ": 6230,
      "انءُ": 6231,
      "دیَگ": 6232,
      "درھ": 6233,
      "تاہیر": 6234,
      "کیلو": 6235,
      "اوشتگ": 6236,
      "کمپان": 6237,
      "مُچی": 6238,
      "مُشک": 6239,
      "بَز": 6240,
      "دومیگ": 6241,
      "تواریں": 6242,
      "توارانی": 6243,
      "گْورا": 6244,
      "خاندان": 6245,
      "گُشاد": 6246,
      "دوراں": 6247,
      "زانگءِ": 6248,
      "پریس": 6249,
      "گپتار": 6250,
      "جاهاں": 6251,
      "برورد": 6252,
      "جِنّ": 6253,
      "گڑیں": 6254,
      "نظری": 6255,
      "مرڈم": 6256,
      "لاچاری": 6257,
      "ھرابیں": 6258,
      "ابیتکیں": 6259,
      "مُلکاں": 6260,
      "ملیر": 6261,
      "جنوزام": 6262,
      "تنیگہ": 6263,
      "وَشـت": 6264,
      "عظیم": 6265,
      "سائیکل": 6266,
      "شعور": 6267,
      "تھاریں": 6268,
      "گْونڈیں": 6269,
      "گُنگدام": 6270,
      "مولابخش": 6271,
      "انجمن": 6272,
      "کافکا": 6273,
      "اشرف": 6274,
      "بعد": 6275,
      "ثا": 6276,
      "جوہ": 6277,
      "حد": 6278,
      "رّ": 6279,
      "رمگ": 6280,
      "زهگ": 6281,
      "سھرا": 6282,
      "شکّ": 6283,
      "فط": 6284,
      "مسی": 6285,
      "نکنت": 6286,
      "ڈنیا": 6287,
      "گمانی": 6288,
      "ھیت": 6289,
      "“.": 6290,
      "انجی": 6291,
      "انوگیں": 6292,
      "الھان": 6293,
      "الدین": 6294,
      "ماد": 6295,
      "رونت": 6296,
      "ریفرنس": 6297,
      "سرپ": 6298,
      "بیاں": 6299,
      "بیدے": 6300,
      "جاوڑ": 6301,
      "کیءَ": 6302,
      "اوداں": 6303,
      "زیل": 6304,
      "ترز": 6305,
      "نوبل": 6306,
      "داتیں": 6307,
      "گْوَ": 6308,
      "چاھے": 6309,
      "سوچن": 6310,
      "کشاں": 6311,
      "چکان": 6312,
      "وَل": 6313,
      "نوکر": 6314,
      "جُل": 6315,
      "کےءَ": 6316,
      "ھوشام": 6317,
      "دَمگ": 6318,
      "وانگءُ": 6319,
      "درائی": 6320,
      "دُرو": 6321,
      "میتگاں": 6322,
      "بادشا": 6323,
      "اِشاں": 6324,
      "پُرسی": 6325,
      "انگتءَ": 6326,
      "احوال": 6327,
      "رُست": 6328,
      "مسار": 6329,
      "لهت": 6330,
      "کارستاں": 6331,
      "نشتاں": 6332,
      "کُرتءُ": 6333,
      "ـیـن": 6334,
      "مـا": 6335,
      "چرائی": 6336,
      "نرمیں": 6337,
      "منتواری": 6338,
      "ٹائ": 6339,
      "گلامی": 6340,
      "ہمراہیءَ": 6341,
      "عبڈالعزیز": 6342,
      "براھوی": 6343,
      "سیٹھ": 6344,
      "چکّاس": 6345,
      "اشاره": 6346,
      "ھلاسی": 6347,
      "عادت": 6348,
      "بـیـت": 6349,
      "سِیاہ": 6350,
      "پمّن": 6351,
      "آگاہ": 6352,
      "ترین": 6353,
      "حم": 6354,
      "دھر": 6355,
      "رکی": 6356,
      "رپتگ": 6357,
      "لُک": 6358,
      "نڑ": 6359,
      "نوا": 6360,
      "نپس": 6361,
      "ِند": 6362,
      "ٹہی": 6363,
      "پگار": 6364,
      "چمان": 6365,
      "ڈگری": 6366,
      "گلی": 6367,
      "ﮐﺎﺭ": 6368,
      "ﺭﻭ": 6369,
      "راجا": 6370,
      "بلّ": 6371,
      "بیماری": 6372,
      "درسیں": 6373,
      "لیٹی": 6374,
      "سابر": 6375,
      "شیدا": 6376,
      "ھرچے": 6377,
      "آہانی": 6378,
      "کپتہ": 6379,
      "زندگاں": 6380,
      "زبانءُ": 6381,
      "چائیں": 6382,
      "زانا": 6383,
      "زانتکارانی": 6384,
      "نبشتہی": 6385,
      "وَتی": 6386,
      "ِرّ": 6387,
      "سَـر": 6388,
      "دُوا": 6389,
      "کِشار": 6390,
      "پروشگ": 6391,
      "نجل": 6392,
      "...": 6393,
      "جنیاد": 6394,
      "کسہانی": 6395,
      "رُژنائی": 6396,
      "چَنڈ": 6397,
      "مِہر": 6398,
      "ھندگ": 6399,
      "مبشت": 6400,
      "بیرک": 6401,
      "بـوُ": 6402,
      "لِکّ": 6403,
      "تـئـی": 6404,
      "رحم": 6405,
      "کلاسیک": 6406,
      "گیشین": 6407,
      "کھول": 6408,
      "کلاگ": 6409,
      "کـَـمّ": 6410,
      "صلّی": 6411,
      "دیمترءَ": 6412,
      "دْرستاں": 6413,
      "اێشی": 6414,
      "آنہیا": 6415,
      "نادْراہ": 6416,
      "ﮔﻮﮞ": 6417,
      "آخر": 6418,
      "اُوشت": 6419,
      "حُدا": 6420,
      "الکاپی": 6421,
      "لونجان": 6422,
      "پمێ": 6423,
      "پیژگاہ": 6424,
      "چلیم": 6425,
      "کُہنیں": 6426,
      "نودربرے": 6427,
      "بدیاں": 6428,
      "تــ": 6429,
      "جاری": 6430,
      "خلیل": 6431,
      "دما": 6432,
      "زد": 6433,
      "غوث": 6434,
      "هــ": 6435,
      "ُت": 6436,
      "ٹاں": 6437,
      "چانی": 6438,
      "ڈور": 6439,
      "ڑَ": 6440,
      "ڑڈ": 6441,
      "ہستی": 6442,
      "ﻧﮧ": 6443,
      "ﻭﺗﯽ": 6444,
      "اِںت": 6445,
      "سرانی": 6446,
      "چیریں": 6447,
      "بیچار": 6448,
      "پہر": 6449,
      "مانش": 6450,
      "کُرو": 6451,
      "مردءِ": 6452,
      "داران": 6453,
      "بزنجو": 6454,
      "پرّی": 6455,
      "بُست": 6456,
      "بُوہ": 6457,
      "زندانی": 6458,
      "سکّی": 6459,
      "جنکو": 6460,
      "مُشت": 6461,
      "ٹیف": 6462,
      "کلیت": 6463,
      "کتابءَ": 6464,
      "گِلگ": 6465,
      "زرجان": 6466,
      "جیڑیت": 6467,
      "خانہ": 6468,
      "عبدالص": 6469,
      "مِک": 6470,
      "وانوکانی": 6471,
      "جتگیں": 6472,
      "پیرک": 6473,
      "لُو": 6474,
      "ندارگے": 6475,
      "کںت": 6476,
      "ارسطو": 6477,
      "گِنداں": 6478,
      "جیڑہانی": 6479,
      "افری": 6480,
      "عامر": 6481,
      "بڑے": 6482,
      "منتگی": 6483,
      "گوزیت": 6484,
      "آشوبی": 6485,
      "فرانس": 6486,
      "بزّگی": 6487,
      "اٙنت": 6488,
      "دشمن": 6489,
      "ءْ": 6490,
      "ئێن": 6491,
      "خلا": 6492,
      "زیک": 6493,
      "زهیر": 6494,
      "سَہ": 6495,
      "سگار": 6496,
      "شاتک": 6497,
      "صَ": 6498,
      "عام": 6499,
      "فسکی": 6500,
      "قِ": 6501,
      "قبول": 6502,
      "ٹپّ": 6503,
      "ڈرائی": 6504,
      "ڑت": 6505,
      "کدو": 6506,
      "ھیک": 6507,
      "ھرد": 6508,
      "ۆچ": 6509,
      "ﺀّ": 6510,
      "ﺌﮯ": 6511,
      "ﺑُ": 6512,
      "ارش": 6513,
      "راھانی": 6514,
      "الانی": 6515,
      "دیواں": 6516,
      "بلێن": 6517,
      "میز": 6518,
      "داکتر": 6519,
      "بیمنا": 6520,
      "انکے": 6521,
      "زندمانی": 6522,
      "کمّیں": 6523,
      "ملور": 6524,
      "بنتءُ": 6525,
      "ٹیو": 6526,
      "زانتانی": 6527,
      "ھامین": 6528,
      "گندے": 6529,
      "واجہءِ": 6530,
      "ایشیا": 6531,
      "سَنگ": 6532,
      "رَست": 6533,
      "وہداں": 6534,
      "شمس": 6535,
      "جهل": 6536,
      "چُلّ": 6537,
      "پِیر": 6538,
      "کسہے": 6539,
      "آرٹ": 6540,
      "ھُبّ": 6541,
      "نندوکیں": 6542,
      "……..": 6543,
      "مھکمیں": 6544,
      "پولنگ": 6545,
      "ابّا": 6546,
      "گواتے": 6547,
      "باسکاں": 6548,
      "دُرستاں": 6549,
      "گْورءَ": 6550,
      "بیاریت": 6551,
      "کردے": 6552,
      "نظر": 6553,
      "گلاب": 6554,
      "کلومیٹر": 6555,
      "سلیم": 6556,
      "اێر": 6557,
      "نشانگ": 6558,
      "مردُماں": 6559,
      "شئیرے": 6560,
      "گنگزار": 6561,
      "سیلانؔ": 6562,
      "نـادراهـی": 6563,
      "مدرسہ": 6564,
      "چوناھیگا": 6565,
      "áí": 6566,
      "اا": 6567,
      "اکسے": 6568,
      "جدید": 6569,
      "جلوہ": 6570,
      "حبرے": 6571,
      "ذاتی": 6572,
      "شکی": 6573,
      "ظلم": 6574,
      "ووٹ": 6575,
      "پکن": 6576,
      "گرام": 6577,
      "۔’’": 6578,
      "ﺷﺎ": 6579,
      "ﻣﺎ": 6580,
      "اَرس": 6581,
      "رور": 6582,
      "رودپتر": 6583,
      "نائ": 6584,
      "نازل": 6585,
      "ایـت": 6586,
      "برہ": 6587,
      "اَتنت": 6588,
      "لایں": 6589,
      "لونک": 6590,
      "گُژن": 6591,
      "چاردہ": 6592,
      "پرشتگ": 6593,
      "بوه": 6594,
      "آںلایں": 6595,
      "مُھ": 6596,
      "جہاں": 6597,
      "ملار": 6598,
      "ملکم": 6599,
      "رنگاں": 6600,
      "شپانی": 6601,
      "اُشت": 6602,
      "ماتانی": 6603,
      "مَٹّ": 6604,
      "پَت": 6605,
      "خانءَ": 6606,
      "بُرزی": 6607,
      "مولد": 6608,
      "جُستانی": 6609,
      "حافظ": 6610,
      "دیستہ": 6611,
      "پٹھان": 6612,
      "تُو": 6613,
      "نَے": 6614,
      "بچاریں": 6615,
      "اشیءَ": 6616,
      "مجل": 6617,
      "چراگے": 6618,
      "جِتا": 6619,
      "ڈولداریں": 6620,
      "باہوٹ": 6621,
      "رجانکاری": 6622,
      "واهگ": 6623,
      "مرڈمانی": 6624,
      "وهدےکه": 6625,
      "رهش": 6626,
      "جناور": 6627,
      "امیری": 6628,
      "پنجاب": 6629,
      "اولاک": 6630,
      "دُکان": 6631,
      "بڈّ": 6632,
      "جلّ": 6633,
      "خمار": 6634,
      "دھی": 6635,
      "شدری": 6636,
      "صدر": 6637,
      "عمان": 6638,
      "متی": 6639,
      "نُک": 6640,
      "ٹار": 6641,
      "کنی": 6642,
      "گیت": 6643,
      "گێں": 6644,
      "ھمینچو": 6645,
      "ہگ": 6646,
      "ﮔُ": 6647,
      "ﯿﺖ": 6648,
      "ارد": 6649,
      "اَھد": 6650,
      "دیری": 6651,
      "باط": 6652,
      "ورک": 6653,
      "ھمسپر": 6654,
      "بیگءَ": 6655,
      "درکار": 6656,
      "درکیت": 6657,
      "سینما": 6658,
      "جائ": 6659,
      "جامی": 6660,
      "تاگت": 6661,
      "لوپ": 6662,
      "لوگوا": 6663,
      "ساع": 6664,
      "اوی": 6665,
      "اگه": 6666,
      "بزیر": 6667,
      "زیاد": 6668,
      "مراں": 6669,
      "موگری": 6670,
      "بُنڈ": 6671,
      "دستءُ": 6672,
      "مُھر": 6673,
      "مُزّ": 6674,
      "ّینَگ": 6675,
      "نیمگاں": 6676,
      "زانتے": 6677,
      "گشندہ": 6678,
      "گِل": 6679,
      "جنگءِ": 6680,
      "دوریں": 6681,
      "جَنت": 6682,
      "سیدءِ": 6683,
      "۔۔۔۔۔۔۔۔۔۔۔": 6684,
      "ماہنا": 6685,
      "مھرانی": 6686,
      "پلیں": 6687,
      "گوستانک": 6688,
      "مھروانیں": 6689,
      "تبیں": 6690,
      "رھبندے": 6691,
      "واںگ": 6692,
      "کڑتگ": 6693,
      "وراک": 6694,
      "اپسوز": 6695,
      "ھمیشاں": 6696,
      "جِن": 6697,
      "تاریخی": 6698,
      "کلاک": 6699,
      "چریشیءَ": 6700,
      "اخلا": 6701,
      "آرامی": 6702,
      "نادْراھی": 6703,
      "دَروَر": 6704,
      "شاھگانیں": 6705,
      "شموشگ": 6706,
      "حقیقت": 6707,
      "ڑحمه": 6708,
      "اماں": 6709,
      "بض": 6710,
      "بتی": 6711,
      "بّہ": 6712,
      "زبہر": 6713,
      "سہر": 6714,
      "سھیگ": 6715,
      "لند": 6716,
      "مبے": 6717,
      "هد": 6718,
      "هژ": 6719,
      "ّیت": 6720,
      "پجہ": 6721,
      "گچینی": 6722,
      "ہوری": 6723,
      "۰۰": 6724,
      "ءَچہ": 6725,
      "انّی": 6726,
      "الخط": 6727,
      "الرحمن": 6728,
      "کنئ": 6729,
      "ایا": 6730,
      "ایرا": 6731,
      "توجی": 6732,
      "لاھور": 6733,
      "لیلہ": 6734,
      "لیاری": 6735,
      "داروکیں": 6736,
      "شیءَ": 6737,
      "شیشہ": 6738,
      "کولے": 6739,
      "ھینگ": 6740,
      "شاباش": 6741,
      "وھاب": 6742,
      "نوار": 6743,
      "بوگا": 6744,
      "بوجیگ": 6745,
      "سراج": 6746,
      "مزھب": 6747,
      "زانگی": 6748,
      "وَڑ": 6749,
      "استار": 6750,
      "دپار": 6751,
      "دوستدار": 6752,
      "گلءَ": 6753,
      "سیاه": 6754,
      "گہتر": 6755,
      "___": 6756,
      "گپّانی": 6757,
      "طاب": 6758,
      "ھَند": 6759,
      "ساربان": 6760,
      "سمائی": 6761,
      "لچّ": 6762,
      "ھنچوش": 6763,
      "گـُ": 6764,
      "رستر": 6765,
      "موسمانی": 6766,
      "بورڈ": 6767,
      "جنجالے": 6768,
      "ربیدگاں": 6769,
      "مشکلاں": 6770,
      "صوبہ": 6771,
      "وردن": 6772,
      "ﺑﯿﺖ": 6773,
      "درآمدیں": 6774,
      "ھپتگے": 6775,
      "تعلیم": 6776,
      "ﺗﺎﻣﺮ": 6777,
      "عُمر": 6778,
      "مخالف": 6779,
      "پمێشا": 6780,
      "əə": 6781,
      "،’’": 6782,
      "ئور": 6783,
      "تکی": 6784,
      "حص": 6785,
      "دزر": 6786,
      "رءِ": 6787,
      "زدھمی": 6788,
      "شَـ": 6789,
      "عذی": 6790,
      "لزت": 6791,
      "مھت": 6792,
      "نکناں": 6793,
      "نشار": 6794,
      "هب": 6795,
      "هۆن": 6796,
      "وجہ": 6797,
      "ٹکر": 6798,
      "ژہ": 6799,
      "کوت": 6800,
      "کَہ": 6801,
      "کـیـ": 6802,
      "گلہ": 6803,
      "گروک": 6804,
      "ھمن": 6805,
      "ﺳﺖ": 6806,
      "ﻧﺪ": 6807,
      "ارباب": 6808,
      "گونگ": 6809,
      "گونگیں": 6810,
      "الاں": 6811,
      "رویہ": 6812,
      "داس": 6813,
      "واڑاں": 6814,
      "ایڑاں": 6815,
      "لیو": 6816,
      "ساھب": 6817,
      "کسمت": 6818,
      "دلشاد": 6819,
      "آی": 6820,
      "ھیری": 6821,
      "شاپ": 6822,
      "اِتءُ": 6823,
      "نوشت": 6824,
      "کائیں": 6825,
      "گوشیں": 6826,
      "نامءُ": 6827,
      "جنسی": 6828,
      "زانتکاراں": 6829,
      "ڈائر": 6830,
      "اشکر": 6831,
      "گِری": 6832,
      "دروریں": 6833,
      "سُد": 6834,
      "میرساگر": 6835,
      "بادشاھی": 6836,
      "جَھل": 6837,
      "گشتے": 6838,
      "مستری": 6839,
      "هرچی": 6840,
      "حاص": 6841,
      "جندے": 6842,
      "تَب": 6843,
      "سِٹ": 6844,
      "مسکر": 6845,
      "ھَم": 6846,
      "تُمپ": 6847,
      "گِران": 6848,
      "جلدی": 6849,
      "رحمت": 6850,
      "رؤف": 6851,
      "نودربرانی": 6852,
      "وستانی": 6853,
      "علاقہ": 6854,
      "ھپتمی": 6855,
      "کنائین": 6856,
      "سسّی": 6857,
      "فوج": 6858,
      "وپسگ": 6859,
      "وهڈےکه": 6860,
      "مذہبی": 6861,
      "نعرہ": 6862,
      "ریکارڈ": 6863,
      "اشاڑه": 6864,
      "-“": 6865,
      "اوتاک": 6866,
      "تع": 6867,
      "تکہ": 6868,
      "تند": 6869,
      "جَگ": 6870,
      "جبین": 6871,
      "خود": 6872,
      "صابر": 6873,
      "نچی": 6874,
      "وّ": 6875,
      "يا": 6876,
      "ٹُکّ": 6877,
      "گژ": 6878,
      "گزار": 6879,
      "ێل": 6880,
      "ﭘﺮ": 6881,
      "ﺳﻮ": 6882,
      "انار": 6883,
      "اتہ": 6884,
      "راهی": 6885,
      "گوم": 6886,
      "اَبر": 6887,
      "دیا": 6888,
      "دیـ": 6889,
      "دینک": 6890,
      "باقی": 6891,
      "ناگت": 6892,
      "بیرو": 6893,
      "درکپ": 6894,
      "جاپان": 6895,
      "دارگی": 6896,
      "دلگران": 6897,
      "بوهگ": 6898,
      "نبشتاری": 6899,
      "بارہءَ": 6900,
      "اسپتال": 6901,
      "رنگءُ": 6902,
      "گِستا": 6903,
      "اُود": 6904,
      "زران": 6905,
      "درآ": 6906,
      "آپاں": 6907,
      "بادت": 6908,
      "پروشت": 6909,
      "ماہیک": 6910,
      "گَپ": 6911,
      "انسانءَ": 6912,
      "شعرءِ": 6913,
      "آہگ": 6914,
      "ودارءَ": 6915,
      "شالا": 6916,
      "؟؟؟": 6917,
      "ہمراہی": 6918,
      "صطان": 6919,
      "شاھین": 6920,
      "قومے": 6921,
      "سْیادی": 6922,
      "مسیتءِ": 6923,
      "برداشت": 6924,
      "مُرید": 6925,
      "واھُند": 6926,
      "جدیدیت": 6927,
      "عذیذ": 6928,
      "´´": 6929,
      "إنت": 6930,
      "بص": 6931,
      "ثۆگه": 6932,
      "حج": 6933,
      "خور": 6934,
      "رکینگ": 6935,
      "سۆ": 6936,
      "شگر": 6937,
      "صور": 6938,
      "صۆج": 6939,
      "ظا": 6940,
      "غفور": 6941,
      "لڈّ": 6942,
      "مڈا": 6943,
      "هاک": 6944,
      "هاترا": 6945,
      "ؤ": 6946,
      "وانت": 6947,
      "ٹوک": 6948,
      "پص": 6949,
      "چکر": 6950,
      "چِر": 6951,
      "چشم": 6952,
      "کدیم": 6953,
      "گؤ": 6954,
      "گژن": 6955,
      "ںێ": 6956,
      "۱۳": 6957,
      "ﯿﺎ": 6958,
      "نتگیں": 6959,
      "ندکاراں": 6960,
      "الت": 6961,
      "الطا": 6962,
      "ماھیگ": 6963,
      "روگءِ": 6964,
      "باغ": 6965,
      "تگرد": 6966,
      "بیوان": 6967,
      "بیطگ": 6968,
      "بیاراں": 6969,
      "برجان": 6970,
      "برباد": 6971,
      "کُبل": 6972,
      "تاکہ": 6973,
      "لاد": 6974,
      "دارنت": 6975,
      "آرگ": 6976,
      "شامی": 6977,
      "شاھو": 6978,
      "کرنے": 6979,
      "موج": 6980,
      "بُنت": 6981,
      "زندگانی": 6982,
      "اسمیرل": 6983,
      "دستءِ": 6984,
      "پاکس": 6985,
      "ٹیل": 6986,
      "کَپت": 6987,
      "ڈائ": 6988,
      "ھوس": 6989,
      "اُش": 6990,
      "سُپا": 6991,
      "سَد": 6992,
      "رَس": 6993,
      "جیڑگءَ": 6994,
      "پوجی": 6995,
      "فیع": 6996,
      "۔۔۔۔۔۔۔۔۔۔": 6997,
      "پُرّیں": 6998,
      "شوق": 6999,
      "شہری": 7000,
      "عبدالواحد": 7001,
      "مِڑ": 7002,
      "اصط": 7003,
      "اصلامی": 7004,
      "روگن": 7005,
      "اسکولءَ": 7006,
      "علق": 7007,
      "کمیون": 7008,
      "ناتپاکی": 7009,
      "ٹِک": 7010,
      "چادرے": 7011,
      "مُچّی": 7012,
      "صالح": 7013,
      "زھیروک": 7014,
      "لنٹانی": 7015,
      "الطاف": 7016,
      "اسمیرلڈا": 7017,
      "آصف": 7018,
      "جسم": 7019,
      "خیں": 7020,
      "دکتر": 7021,
      "سئ": 7022,
      "سلو": 7023,
      "سسٹ": 7024,
      "غَ": 7025,
      "قبائ": 7026,
      "مدار": 7027,
      "نھ": 7028,
      "پدو": 7029,
      "پشی": 7030,
      "ڈڈ": 7031,
      "ژّ": 7032,
      "کڑی": 7033,
      "گنی": 7034,
      "ﻭﺍ": 7035,
      "ءِے": 7036,
      "یتَگ": 7037,
      "الل": 7038,
      "ھمان": 7039,
      "بیلاں": 7040,
      "مرداں": 7041,
      "ساڑ": 7042,
      "ساڈی": 7043,
      "گُڈّ": 7044,
      "کوں": 7045,
      "کوّاس": 7046,
      "ھرچیز": 7047,
      "شاداب": 7048,
      "بندءُ": 7049,
      "ترءُ": 7050,
      "نوروز": 7051,
      "کاڑاں": 7052,
      "گْون": 7053,
      "اسط": 7054,
      "انگتہ": 7055,
      "مُج": 7056,
      "مُـ": 7057,
      "مُہر": 7058,
      "مُچّ": 7059,
      "رنگا": 7060,
      "دروگے": 7061,
      "سُتکگیں": 7062,
      "گلے": 7063,
      "جوز": 7064,
      "دورءِ": 7065,
      "مستیں": 7066,
      "ھُشکیں": 7067,
      "کرتگیں": 7068,
      "شہمیر": 7069,
      "زالے": 7070,
      "ساہت": 7071,
      "گـَـ": 7072,
      "میانجی": 7073,
      "گامگیج": 7074,
      "ساریءَ": 7075,
      "جلال": 7076,
      "زھگانی": 7077,
      "تریاک": 7078,
      "تیابءَ": 7079,
      "دلیل": 7080,
      "اناگت": 7081,
      "ترانگاں": 7082,
      "کُشیت": 7083,
      "وئیفسکی": 7084,
      "گریتگ": 7085,
      "ھاھاھاھا": 7086,
      "رازیگ": 7087,
      "ﺑﺎﺯ": 7088,
      "لنکک": 7089,
      "کصے": 7090,
      "شاءاللہ": 7091,
      "کُرونا": 7092,
      "لوگواجہ": 7093,
      "خبر": 7094,
      "ذہن": 7095,
      "رث": 7096,
      "رمز": 7097,
      "زءَ": 7098,
      "سواس": 7099,
      "شنت": 7100,
      "شماں": 7101,
      "شھد": 7102,
      "صیا": 7103,
      "طون": 7104,
      "نَـ": 7105,
      "ِرد": 7106,
      "ِتگ": 7107,
      "ٹءِ": 7108,
      "پسی": 7109,
      "پلہ": 7110,
      "ڈہ": 7111,
      "ڈُکّ": 7112,
      "کشا": 7113,
      "گزیر": 7114,
      "ھُر": 7115,
      "ہاتر": 7116,
      "ہمینچو": 7117,
      "یز": 7118,
      "یناں": 7119,
      "ێنے": 7120,
      "ﮐُ": 7121,
      "ﺳﺎ": 7122,
      "انس": 7123,
      "انٹ": 7124,
      "ارادہ": 7125,
      "راط": 7126,
      "دیث": 7127,
      "دیک": 7128,
      "نگدی": 7129,
      "روگا": 7130,
      "ریاں": 7131,
      "بیدل": 7132,
      "پہوال": 7133,
      "کُور": 7134,
      "تاس": 7135,
      "اداں": 7136,
      "دارءِ": 7137,
      "بانل": 7138,
      "دلمراد": 7139,
      "آزات": 7140,
      "چارئے": 7141,
      "نوری": 7142,
      "نوزدہ": 7143,
      "داتاں": 7144,
      "ماراں": 7145,
      "نیمروچ": 7146,
      "گشگا": 7147,
      "مَست": 7148,
      "نجیں": 7149,
      "رھشونی": 7150,
      "احساس": 7151,
      "مُرگاں": 7152,
      "کورس": 7153,
      "شَیر": 7154,
      "رہادگ": 7155,
      "چاپءُ": 7156,
      "ہَپت": 7157,
      "ندارہ": 7158,
      "ندارگاں": 7159,
      "کڑطگ": 7160,
      "دابءَ": 7161,
      "رازے": 7162,
      "کنوکانی": 7163,
      "سلطان": 7164,
      "جْوانی": 7165,
      "دیدگانی": 7166,
      "البتہ": 7167,
      "……………………": 7168,
      "ھرابی": 7169,
      "بھیسہ": 7170,
      "زھگے": 7171,
      "آواںی": 7172,
      "رۆچ": 7173,
      "کْوھنگیں": 7174,
      "ﺑﻠﮯ": 7175,
      "زیندھ": 7176,
      "ھاٹیگ": 7177,
      "آل": 7178,
      "تج": 7179,
      "تبی": 7180,
      "تُک": 7181,
      "جتہ": 7182,
      "شرا": 7183,
      "شَگ": 7184,
      "شعیب": 7185,
      "لَہ": 7186,
      "نــ": 7187,
      "نزین": 7188,
      "َگءَ": 7189,
      "ِنت": 7190,
      "ِست": 7191,
      "ٹور": 7192,
      "چۆ": 7193,
      "چُر": 7194,
      "چّہ": 7195,
      "ڈات": 7196,
      "ڑد": 7197,
      "ڑکی": 7198,
      "ھشتر": 7199,
      "یـاں": 7200,
      "ﮐﻪ": 7201,
      "انکہ": 7202,
      "انّاں": 7203,
      "انصاف": 7204,
      "وتے": 7205,
      "منزلے": 7206,
      "اتءِ": 7207,
      "رولہ": 7208,
      "ریھان": 7209,
      "باک": 7210,
      "نیمو": 7211,
      "سرگ": 7212,
      "سرباز": 7213,
      "بیڑ": 7214,
      "بیمّ": 7215,
      "بیگاه": 7216,
      "مانے": 7217,
      "اَتا": 7218,
      "پیڑ": 7219,
      "لولی": 7220,
      "لیڑ": 7221,
      "پدمنتگیں": 7222,
      "گرماگ": 7223,
      "کتنت": 7224,
      "وشنود": 7225,
      "وڑوڑێں": 7226,
      "نامءِ": 7227,
      "جنرل": 7228,
      "کشاری": 7229,
      "دستوئیفسکی": 7230,
      "ازل": 7231,
      "گالتوار": 7232,
      "بَنت": 7233,
      "کَلّ": 7234,
      "اشک": 7235,
      "بتان": 7236,
      "دمب": 7237,
      "زاب": 7238,
      "میریں": 7239,
      "دُو": 7240,
      "جوانت": 7241,
      "پورو": 7242,
      "ماہءَ": 7243,
      "سمرین": 7244,
      "نّام": 7245,
      "مھتر": 7246,
      "مریم": 7247,
      "زَرد": 7248,
      "گِرَگ": 7249,
      "آدمانی": 7250,
      "مہرانی": 7251,
      "افلا": 7252,
      "کالونی": 7253,
      "تامرانی": 7254,
      "سریگ": 7255,
      "مگسی": 7256,
      "زوراکیں": 7257,
      "سرکارءِ": 7258,
      "شناسی": 7259,
      "گڈسر": 7260,
      "چپّی": 7261,
      "ضلع": 7262,
      "هُدا": 7263,
      "بیکن": 7264,
      "براہوئی": 7265,
      "گروپ": 7266,
      "تمامیں": 7267,
      "کیسگءَ": 7268,
      "نیزگار": 7269,
      ".۔": 7270,
      "ثے": 7271,
      "ثتا": 7272,
      "جِی": 7273,
      "حاترا": 7274,
      "دۆ": 7275,
      "رمس": 7276,
      "رشید": 7277,
      "زگر": 7278,
      "زهی": 7279,
      "سنت": 7280,
      "سادگ": 7281,
      "سباہ": 7282,
      "لیت": 7283,
      "مغ": 7284,
      "مَگ": 7285,
      "ْک": 7286,
      "ٹکی": 7287,
      "ٹکا": 7288,
      "پۆ": 7289,
      "گست": 7290,
      "ہائی": 7291,
      "ہنر": 7292,
      "۲۲": 7293,
      "راق": 7294,
      "راشد": 7295,
      "دیوانگ": 7296,
      "رؤ": 7297,
      "روکپتی": 7298,
      "میلانک": 7299,
      "ناگ": 7300,
      "ھمگر": 7301,
      "بیٹ": 7302,
      "بوتل": 7303,
      "ایانی": 7304,
      "درملکی": 7305,
      "سیف": 7306,
      "پیروک": 7307,
      "لاگریں": 7308,
      "وانان": 7309,
      "دلگۆش": 7310,
      "آھاں": 7311,
      "زیراں": 7312,
      "مریت": 7313,
      "بندیت": 7314,
      "بےاںط": 7315,
      "پرست": 7316,
      "پرنگی": 7317,
      "داتنت": 7318,
      "بارگیں": 7319,
      "کشّی": 7320,
      "ملنڈ": 7321,
      "راہے": 7322,
      "ڈیلہ": 7323,
      "زانو": 7324,
      "کَول": 7325,
      "لّاں": 7326,
      "پسّ": 7327,
      "سُـ": 7328,
      "سنگر": 7329,
      "پاداتک": 7330,
      "جیڑھانی": 7331,
      "شانیں": 7332,
      "ہمائی": 7333,
      "مشکول": 7334,
      "گریبی": 7335,
      "چِد": 7336,
      "پارگی": 7337,
      "احسان": 7338,
      "مسلم": 7339,
      "مھری": 7340,
      "بـاز": 7341,
      "دروشمءَ": 7342,
      "گـوں": 7343,
      "گِندگءَ": 7344,
      "آنگو": 7345,
      "ندیم": 7346,
      "ساچشتے": 7347,
      "چنڈی": 7348,
      "سوجکار": 7349,
      "گوادرءِ": 7350,
      "کلوھے": 7351,
      "ھرکسءَ": 7352,
      "بابتا": 7353,
      "بلیدہ": 7354,
      "بْرمش": 7355,
      "سجدہ": 7356,
      "کنائینت": 7357,
      "رَوِشت": 7358,
      "یعنے": 7359,
      "کمرہ": 7360,
      "حوالہ": 7361,
      "قانون": 7362,
      "ﻣﻨﯽ": 7363,
      "مصطفیٰ": 7364,
      "لندن": 7365,
      "ؔءُ": 7366,
      "اعظ": 7367,
      "بط": 7368,
      "تق": 7369,
      "حمزہ": 7370,
      "ختی": 7371,
      "رص": 7372,
      "رگام": 7373,
      "زنڈ": 7374,
      "زیکیں": 7375,
      "سُک": 7376,
      "سستگ": 7377,
      "قُ": 7378,
      "نرس": 7379,
      "نـیـ": 7380,
      "نکین": 7381,
      "وج": 7382,
      "ِـ": 7383,
      "پڑاں": 7384,
      "پلیٹ": 7385,
      "پسیل": 7386,
      "کلہ": 7387,
      "گزا": 7388,
      "ﯿﺮ": 7389,
      "ﺴﺖ": 7390,
      "گویا": 7391,
      "گوہر": 7392,
      "دیگی": 7393,
      "ریپ": 7394,
      "تگاں": 7395,
      "دادے": 7396,
      "اینڈ": 7397,
      "بہت": 7398,
      "درکپتگ": 7399,
      "مانگی": 7400,
      "گیگان": 7401,
      "دوداں": 7402,
      "دوھیں": 7403,
      "کیام": 7404,
      "شیطان": 7405,
      "کسھانی": 7406,
      "کسانکیں": 7407,
      "گُم": 7408,
      "کوھی": 7409,
      "اگہ": 7410,
      "مرغ": 7411,
      "چارِت": 7412,
      "پراں": 7413,
      "بواں": 7414,
      "بُوھ": 7415,
      "گْوار": 7416,
      "گامے": 7417,
      "جنئ": 7418,
      "بدواہ": 7419,
      "زانتاں": 7420,
      "گندگا": 7421,
      "ستانکی": 7422,
      "سُبارگ": 7423,
      "جنگلے": 7424,
      "ھچّ": 7425,
      "گُشند": 7426,
      "گُشندہ": 7427,
      "کِساس": 7428,
      "سیدءَ": 7429,
      "دریاب": 7430,
      "دیوانءِ": 7431,
      "۔۔۔۔۔۔۔۔۔۔۔۔۔۔۔": 7432,
      "پُرشتگ": 7433,
      "جنیناں": 7434,
      "زمینے": 7435,
      "کسہاں": 7436,
      "گْوشاں": 7437,
      "سِست": 7438,
      "نِک": 7439,
      "مھران": 7440,
      "بهڑ": 7441,
      "آسءَ": 7442,
      "بلوچستانءَ": 7443,
      "درستانی": 7444,
      "تُپنگ": 7445,
      "مھکم": 7446,
      "بـلـ": 7447,
      "گیرت": 7448,
      "گِراں": 7449,
      "چراغ": 7450,
      "چراگاں": 7451,
      "دُرست": 7452,
      "وشیانی": 7453,
      "بوہان": 7454,
      "گنوکے": 7455,
      "کنوکاں": 7456,
      "اسکولءِ": 7457,
      "سفرنامہ": 7458,
      "توکلی": 7459,
      "بنگلہ": 7460,
      "شھدربرجاہ": 7461,
      "برزیں": 7462,
      "ترینت": 7463,
      "بْیا": 7464,
      "دریگتیں": 7465,
      "مڑڈم": 7466,
      "واھگاں": 7467,
      "بُنگپّ": 7468,
      "صفح": 7469,
      "باڑوا": 7470,
      "شاگرد": 7471,
      "بزّگیں": 7472,
      "اَنگت": 7473,
      "عالیہ": 7474,
      "دُرائیں": 7475,
      "ﺑﻠﻮﭼﯽ": 7476,
      "آسرا": 7477,
      "أَ": 7478,
      "ائے": 7479,
      "بچی": 7480,
      "تباہ": 7481,
      "ثیت": 7482,
      "ثۆج": 7483,
      "حالی": 7484,
      "ذکری": 7485,
      "رھیم": 7486,
      "رکشان": 7487,
      "زھن": 7488,
      "صبب": 7489,
      "عِ": 7490,
      "عرو": 7491,
      "قرہ": 7492,
      "لبر": 7493,
      "لّی": 7494,
      "مێ": 7495,
      "مقص": 7496,
      "هوار": 7497,
      "وص": 7498,
      "وع": 7499,
      "َری": 7500,
      "ِیر": 7501,
      "ڈۆ": 7502,
      "ڈلی": 7503,
      "کزا": 7504,
      "گط": 7505,
      "گجر": 7506,
      "ہءُ": 7507,
      "یءِ": 7508,
      "ﭼﻮ": 7509,
      "اندام": 7510,
      "کہور": 7511,
      "ستین": 7512,
      "راحی": 7513,
      "گوادری": 7514,
      "شتانی": 7515,
      "یکوارے": 7516,
      "ریم": 7517,
      "ناس": 7518,
      "ناھدا": 7519,
      "کارا": 7520,
      "کارڈ": 7521,
      "ایڈی": 7522,
      "توانا": 7523,
      "درباری": 7524,
      "جاھانی": 7525,
      "جاگه": 7526,
      "پیرین": 7527,
      "دارگءَ": 7528,
      "اوبا": 7529,
      "دلء": 7530,
      "ھرے": 7531,
      "بوتگنت": 7532,
      "ترقی": 7533,
      "پرز": 7534,
      "گرند": 7535,
      "اسک": 7536,
      "اسپے": 7537,
      "مُسا": 7538,
      "مُپت": 7539,
      "پاچ": 7540,
      "ھمایاں": 7541,
      "زانے": 7542,
      "زانشی": 7543,
      "ھاجت": 7544,
      "کُتءُ": 7545,
      "جُتا": 7546,
      "درورے": 7547,
      "نڈر": 7548,
      "رَوت": 7549,
      "جیڑگانی": 7550,
      "دورءُ": 7551,
      "پروگرام": 7552,
      "لمبءَ": 7553,
      "چشێں": 7554,
      "ھیرت": 7555,
      "گدارءِ": 7556,
      "گَپّ": 7557,
      "اوشتیت": 7558,
      "وانوکے": 7559,
      "رِند": 7560,
      "ڈاکٹرے": 7561,
      "برواں": 7562,
      "بولان": 7563,
      "کراچیءِ": 7564,
      "سازگر": 7565,
      "نـد": 7566,
      "ولیعہد": 7567,
      "جیڑہاں": 7568,
      "اثلامی": 7569,
      "عاق": 7570,
      "فائ": 7571,
      "رائیل": 7572,
      "عطاء": 7573,
      "دریاءِ": 7574,
      "منّانک": 7575,
      "گڑھ": 7576,
      "زھرشانی": 7577,
      "کلاسیکل": 7578,
      "شھداد": 7579,
      "دیوالانی": 7580,
      "٭٭٭٭٭٭٭٭٭٭٭٭": 7581,
      "ھشتمی": 7582,
      "لائن": 7583,
      "ہندو": 7584,
      "ریکانی": 7585,
      "تربتءَ": 7586,
      "لانچءَ": 7587,
      "پَدّر": 7588,
      "کمالان": 7589,
      "جزباتی": 7590,
      "مطلب": 7591,
      "****************": 7592,
      "تسلہ": 7593,
      "جماعت": 7594,
      "آخری": 7595,
      "خُدا": 7596,
      "پیسریگیں": 7597,
      "کـُـرت": 7598,
      "پشومان": 7599,
      "کاروبار": 7600,
      "گواچنی": 7601,
      "افلاطون": 7602,
      "))": 7603,
      "آھو": 7604,
      "آمد": 7605,
      "آؤکیں": 7606,
      "بنیادی": 7607,
      "بنگیجی": 7608,
      "تِی": 7609,
      "حِ": 7610,
      "دژ": 7611,
      "روتا": 7612,
      "زباد": 7613,
      "سٹر": 7614,
      "سۆج": 7615,
      "شھار": 7616,
      "شفیع": 7617,
      "صحا": 7618,
      "لٹّ": 7619,
      "مپت": 7620,
      "مشه": 7621,
      "وڈے": 7622,
      "ٹن": 7623,
      "ٹڑ": 7624,
      "چتو": 7625,
      "ڈپ": 7626,
      "کیک": 7627,
      "گلّ": 7628,
      "گمیگ": 7629,
      "یھو": 7630,
      "ێناں": 7631,
      "۔)": 7632,
      "اِلم": 7633,
      "دیئگ": 7634,
      "ماھیں": 7635,
      "روم": 7636,
      "روئیں": 7637,
      "باہی": 7638,
      "نیو": 7639,
      "سرحال": 7640,
      "سربازی": 7641,
      "بیلی": 7642,
      "کارگالانی": 7643,
      "دردی": 7644,
      "درجہ": 7645,
      "گیریں": 7646,
      "کُڑ": 7647,
      "کُلی": 7648,
      "تاکت": 7649,
      "لاشاری": 7650,
      "دارءَ": 7651,
      "باندءَ": 7652,
      "کون": 7653,
      "کوڑ": 7654,
      "آہاں": 7655,
      "کرزیں": 7656,
      "بےاںت": 7657,
      "چارگا": 7658,
      "پرانی": 7659,
      "بُنگیجی": 7660,
      "تیراں": 7661,
      "ڈیڈ": 7662,
      "ٹیم": 7663,
      "پُژ": 7664,
      "سالیں": 7665,
      "اُودا": 7666,
      "مدتے": 7667,
      "پساں": 7668,
      "زرے": 7669,
      "دوستاں": 7670,
      "ھالءَ": 7671,
      "میشن": 7672,
      "شهید": 7673,
      "دْریگ": 7674,
      "محفو": 7675,
      "پروشتگ": 7676,
      "ماہکان": 7677,
      "چُکءَ": 7678,
      "جُستءُ": 7679,
      "یاتے": 7680,
      "مهمان": 7681,
      "دِیر": 7682,
      "زِری": 7683,
      "ھورک": 7684,
      "سہرا": 7685,
      "شئیراں": 7686,
      "گـوَشـت": 7687,
      "دزگیر": 7688,
      "ڈّن": 7689,
      "بورخی": 7690,
      "بھشت": 7691,
      "اینگو": 7692,
      "حرکت": 7693,
      "زِرءَ": 7694,
      "شناس": 7695,
      "کسانیءَ": 7696,
      "مسیتءَ": 7697,
      "واجھیں": 7698,
      "ساھگے": 7699,
      "ڑهش": 7700,
      "سرداری": 7701,
      "خاموشؔ": 7702,
      "ﺑﯿﺘﮓ": 7703,
      "پجّا": 7704,
      "مڑاہ": 7705,
      "داروگہ": 7706,
      "عیسیٰ": 7707,
      "~~~~~~~~": 7708,
      "مستانہ": 7709,
      "محفوظ": 7710,
      "://": 7711,
      "éń": 7712,
      "ءﹸ": 7713,
      "آور": 7714,
      "آشک": 7715,
      "تچوکیں": 7716,
      "جھت": 7717,
      "جبیں": 7718,
      "دپا": 7719,
      "رجی": 7720,
      "سّا": 7721,
      "سبارگ": 7722,
      "شوڑ": 7723,
      "غان": 7724,
      "ـگ": 7725,
      "ـسـ": 7726,
      "فوجی": 7727,
      "لز": 7728,
      "لار": 7729,
      "ممتا": 7730,
      "نن": 7731,
      "نواز": 7732,
      "هاتر": 7733,
      "وخ": 7734,
      "َے": 7735,
      "َگیں": 7736,
      "ُور": 7737,
      "پتہ": 7738,
      "پتی": 7739,
      "پـیـ": 7740,
      "ڈم": 7741,
      "کک": 7742,
      "ںام": 7743,
      "ھلی": 7744,
      "ﮔﺮ": 7745,
      "انچین": 7746,
      "انساپ": 7747,
      "ماپ": 7748,
      "روار": 7749,
      "روژنائی": 7750,
      "یکپارگی": 7751,
      "ریب": 7752,
      "بابو": 7753,
      "وریت": 7754,
      "نادان": 7755,
      "سربوت": 7756,
      "بیسی": 7757,
      "بیزن": 7758,
      "توبہ": 7759,
      "مانگیش": 7760,
      "کُھ": 7761,
      "کُنگ": 7762,
      "جامگ": 7763,
      "پیوند": 7764,
      "لوز": 7765,
      "کیپ": 7766,
      "واناک": 7767,
      "باند": 7768,
      "آف": 7769,
      "کربان": 7770,
      "ڑاج": 7771,
      "پرّ": 7772,
      "پرتو": 7773,
      "نودی": 7774,
      "گرما": 7775,
      "نبشتکار": 7776,
      "گوشان": 7777,
      "جننت": 7778,
      "سوس": 7779,
      "سویت": 7780,
      "مُدّ": 7781,
      "مزنین": 7782,
      "تابکءَ": 7783,
      "جُھل": 7784,
      "گِـ": 7785,
      "دمکانی": 7786,
      "دَری": 7787,
      "پَش": 7788,
      "جولائی": 7789,
      "کرتیں": 7790,
      "دانکی": 7791,
      "۔۔۔۔۔۔۔۔۔۔۔۔": 7792,
      "کسےءِ": 7793,
      "پِسّ": 7794,
      "بدلخان": 7795,
      "سمّو": 7796,
      "پلنگ": 7797,
      "جاگہاں": 7798,
      "لهط": 7799,
      "مھناز": 7800,
      "نبیسوک": 7801,
      "براتانی": 7802,
      "وسیں": 7803,
      "ھمیشانی": 7804,
      "وہدءِ": 7805,
      "بڑگ": 7806,
      "کلاتءِ": 7807,
      "کلاسءَ": 7808,
      "ساھتاں": 7809,
      "لۆٹاں": 7810,
      "ڈَنّ": 7811,
      "سپاہی": 7812,
      "ہنکین": 7813,
      "بںڈ": 7814,
      "زھیراں": 7815,
      "کپوتے": 7816,
      "ساھگءَ": 7817,
      "قصہ": 7818,
      "جـان": 7819,
      "گوانز": 7820,
      "شیتان": 7821,
      "وانندہیں": 7822,
      "لُنٹاں": 7823,
      "سجھیں": 7824,
      "عظی": 7825,
      "اێڑ": 7826,
      "تکانسری": 7827,
      "جناح": 7828,
      "اِسحاق": 7829,
      "پرمائیت": 7830,
      "سُرینت": 7831,
      "جُمّا": 7832,
      "آتراپ": 7833,
      "داغستان": 7834,
      "آکبت": 7835,
      "انّوں": 7836,
      "اھی": 7837,
      "اشر": 7838,
      "ببنت": 7839,
      "بجّار": 7840,
      "تماہ": 7841,
      "جس": 7842,
      "ربّ": 7843,
      "ضان": 7844,
      "قبض": 7845,
      "مبیت": 7846,
      "مکنت": 7847,
      "نگو": 7848,
      "پث": 7849,
      "پـت": 7850,
      "پناہ": 7851,
      "ڈانی": 7852,
      "ڈولی": 7853,
      "کبا": 7854,
      "کبول": 7855,
      "کزوری": 7856,
      "گوت": 7857,
      "گٹّ": 7858,
      "ېی": 7859,
      "ﮬﺪ": 7860,
      "ﺘﺎ": 7861,
      "اںق": 7862,
      "وتاں": 7863,
      "وتیک": 7864,
      "منزور": 7865,
      "اِط": 7866,
      "الپ": 7867,
      "المیں": 7868,
      "میانءَ": 7869,
      "باث": 7870,
      "ھمراھ": 7871,
      "بیسّ": 7872,
      "دربی": 7873,
      "گیاب": 7874,
      "چوکی": 7875,
      "ساھل": 7876,
      "سازین": 7877,
      "کسھی": 7878,
      "گُو": 7879,
      "وھیں": 7880,
      "وارس": 7881,
      "مہتل": 7882,
      "بووگ": 7883,
      "مارے": 7884,
      "گْری": 7885,
      "زبانزانتی": 7886,
      "چاچ": 7887,
      "پاؤ": 7888,
      "پابندی": 7889,
      "تراول": 7890,
      "ازباب": 7891,
      "پتانی": 7892,
      "کلّ": 7893,
      "چمدار": 7894,
      "همک": 7895,
      "همێش": 7896,
      "جُـ": 7897,
      "استمان": 7898,
      "امجد": 7899,
      "مَیار": 7900,
      "دوستین": 7901,
      "پادیں": 7902,
      "جنگءُ": 7903,
      "سَرا": 7904,
      "سَوب": 7905,
      "دُزی": 7906,
      "رَج": 7907,
      "رَکّ": 7908,
      "سیاھی": 7909,
      "گہیں": 7910,
      "جیڑگاں": 7911,
      "کِسّ": 7912,
      "گورے": 7913,
      "ھیالداری": 7914,
      "گشتانک": 7915,
      "بیائے": 7916,
      "حاک": 7917,
      "گُشتے": 7918,
      "گَم": 7919,
      "گَند": 7920,
      "نبشتانکاں": 7921,
      "برابری": 7922,
      "طاہر": 7923,
      "بنجاہ": 7924,
      "رِدءَ": 7925,
      "جارچین": 7926,
      "ھاندان": 7927,
      "بچاراں": 7928,
      "روزرد": 7929,
      "اپنے": 7930,
      "پنچیں": 7931,
      "علمءِ": 7932,
      "رازاں": 7933,
      "بکشاتگ": 7934,
      "ھاشمیؔ": 7935,
      "جلواہ": 7936,
      "زالبولاں": 7937,
      "بُوّگ": 7938,
      "چُکّانی": 7939,
      "ربیدگانی": 7940,
      "لائبری": 7941,
      "دنیایے": 7942,
      "ڈُبّہ": 7943,
      "تجربت": 7944,
      "بھارگاہ": 7945,
      "ﺍِﺕ": 7946,
      "واقع": 7947,
      "ساتھ": 7948,
      "آزمانک": 7949,
      "انقلا": 7950,
      "ھروھد": 7951,
      "کساسے": 7952,
      "کاستیل": 7953,
      "نادراھجاہ": 7954,
      "ملکموت": 7955,
      "لبرل": 7956,
      "بورخیس": 7957,
      "ممتاز": 7958,
      "ؤت": 7959,
      "اھم": 7960,
      "بحر": 7961,
      "جوکی": 7962,
      "جلیل": 7963,
      "خوف": 7964,
      "ذر": 7965,
      "رمل": 7966,
      "سون": 7967,
      "سجہ": 7968,
      "عصا": 7969,
      "عراق": 7970,
      "قڑ": 7971,
      "قسم": 7972,
      "مم": 7973,
      "مکّ": 7974,
      "هشت": 7975,
      "هوش": 7976,
      "هـر": 7977,
      "چێ": 7978,
      "چتگ": 7979,
      "ڈُک": 7980,
      "کدیں": 7981,
      "گں": 7982,
      "انچائیں": 7983,
      "ءِسرا": 7984,
      "ارجان": 7985,
      "منندیں": 7986,
      "منوتیک": 7987,
      "یتی": 7988,
      "گوج": 7989,
      "نہاد": 7990,
      "نہادی": 7991,
      "ریـ": 7992,
      "باگیں": 7993,
      "ناسرپد": 7994,
      "ناسرپدی": 7995,
      "ھمدءَ": 7996,
      "ھمّل": 7997,
      "کنڈی": 7998,
      "درآتک": 7999,
      "مانءَ": 8000,
      "دؤر": 8001,
      "کُلاں": 8002,
      "لاڑ": 8003,
      "لاسی": 8004,
      "تہت": 8005,
      "لیڈر": 8006,
      "شیعه": 8007,
      "گُلا": 8008,
      "گُہار": 8009,
      "دگانی": 8010,
      "کونسل": 8011,
      "زیمی": 8012,
      "بندءَ": 8013,
      "بلوچان": 8014,
      "مہلہ": 8015,
      "بودی": 8016,
      "گْواہ": 8017,
      "مُہ": 8018,
      "راہءِ": 8019,
      "تیوگ": 8020,
      "ڈیواں": 8021,
      "گالی": 8022,
      "لوٹوک": 8023,
      "بَڑ": 8024,
      "کلگ": 8025,
      "پُنّوں": 8026,
      "گشند": 8027,
      "چیزّ": 8028,
      "چیزءَ": 8029,
      "ڈاط": 8030,
      "امڑ": 8031,
      "مَزَن": 8032,
      "لوگبانک": 8033,
      "زرباری": 8034,
      "کّار": 8035,
      "تکاں": 8036,
      "سنگین": 8037,
      "ھالت": 8038,
      "نکانی": 8039,
      "بادشاہی": 8040,
      "پوج": 8041,
      "چُکّاں": 8042,
      "گدارانی": 8043,
      "گریشگ": 8044,
      "جتءُ": 8045,
      "ـــــــ": 8046,
      "انسانیت": 8047,
      "انسانانی": 8048,
      "کندی": 8049,
      "پریشی": 8050,
      "زالم": 8051,
      "زِشت": 8052,
      "شَم": 8053,
      "زُبانے": 8054,
      "پاسپورٹ": 8055,
      "داشتگیں": 8056,
      "راجدپترءِ": 8057,
      "سنٹر": 8058,
      "حیالاں": 8059,
      "ساچشتانی": 8060,
      "بَرے": 8061,
      "گهتر": 8062,
      "بوہگءَ": 8063,
      "ھِچّ": 8064,
      "منّوک": 8065,
      "ھوناں": 8066,
      "سردارانی": 8067,
      "گلائی": 8068,
      "گنجلان": 8069,
      "نجیب": 8070,
      "مُلکی": 8071,
      "وفاق": 8072,
      "یورپی": 8073,
      "پْرو": 8074,
      "””””": 8075,
      "کثے": 8076,
      "ارزانیں": 8077,
      "مردُمانی": 8078,
      "سلاه": 8079,
      "مقام": 8080,
      "چُنڈے": 8081,
      "جمہوریت": 8082,
      "ٹھینگ": 8083,
      "لکیر": 8084,
      "بشکھندگ": 8085,
      "بژنی": 8086,
      "رَنـدا": 8087,
      "منوگر": 8088,
      "افسانہ": 8089,
      "áá": 8090,
      "آزار": 8091,
      "بدر": 8092,
      "تعلق": 8093,
      "جلو": 8094,
      "حت": 8095,
      "حفی": 8096,
      "خدم": 8097,
      "دزی": 8098,
      "زمیں": 8099,
      "صلی": 8100,
      "ضیا": 8101,
      "طوان": 8102,
      "عبادت": 8103,
      "قند": 8104,
      "مانت": 8105,
      "مئیگ": 8106,
      "ني": 8107,
      "نکن": 8108,
      "نزانتگ": 8109,
      "هت": 8110,
      "َب": 8111,
      "ٹانی": 8112,
      "ڑث": 8113,
      "ھول": 8114,
      "ھسپتال": 8115,
      "ہنی": 8116,
      "ۆچی": 8117,
      "ۆکانی": 8118,
      "۔؟": 8119,
      "ﺗﻮ": 8120,
      "ﻧﺒ": 8121,
      "ءَگوں": 8122,
      "اتان": 8123,
      "اَم": 8124,
      "اَند": 8125,
      "ماہر": 8126,
      "میوزی": 8127,
      "بابل": 8128,
      "نیزگاری": 8129,
      "ایپ": 8130,
      "ایلیٹ": 8131,
      "تول": 8132,
      "پہل": 8133,
      "آئین": 8134,
      "جائش": 8135,
      "بانو": 8136,
      "بانڑی": 8137,
      "اوار": 8138,
      "اوژناگ": 8139,
      "مرگءِ": 8140,
      "یاب": 8141,
      "موز": 8142,
      "نوداں": 8143,
      "وارین": 8144,
      "مُن": 8145,
      "مزں": 8146,
      "ئِـے": 8147,
      "ھاجی": 8148,
      "همدا": 8149,
      "گشان": 8150,
      "استا": 8151,
      "گارءُ": 8152,
      "آیرا": 8153,
      "وابیں": 8154,
      "دوستے": 8155,
      "بِستار": 8156,
      "دہکان": 8157,
      "حیثیت": 8158,
      "سِل": 8159,
      "چِکّ": 8160,
      "نِزور": 8161,
      "نِشتگیں": 8162,
      "نبیل": 8163,
      "رُستگیں": 8164,
      "مهلوک": 8165,
      "کوہءَ": 8166,
      "کنانءَ": 8167,
      "تبءَ": 8168,
      "کارمرزگ": 8169,
      "دینکے": 8170,
      "یوم": 8171,
      "گـاں": 8172,
      "مـان": 8173,
      "حیالے": 8174,
      "کوٹیءَ": 8175,
      "گچێن": 8176,
      "ھونڈ": 8177,
      "تِیر": 8178,
      "چـو": 8179,
      "دانکے": 8180,
      "ایرانءِ": 8181,
      "تْرانگ": 8182,
      "سوتکال": 8183,
      "لائک": 8184,
      "سپاھیگ": 8185,
      "اوشتاتگیں": 8186,
      "ظفرؔ": 8187,
      "شوکت": 8188,
      "اسٹیج": 8189,
      "شاتکامی": 8190,
      "کُلّیں": 8191,
      "آدمی": 8192,
      "دعوت": 8193,
      "نازرکیں": 8194,
      "ڈرامہ": 8195,
      "اسپینش": 8196,
      "عدلیہ": 8197,
      "توجیلے": 8198,
      "قبائلی": 8199,
      "حفیظ": 8200,
      "بث": 8201,
      "بڑا": 8202,
      "تف": 8203,
      "خێ": 8204,
      "ذاں": 8205,
      "صیل": 8206,
      "ظھور": 8207,
      "قیا": 8208,
      "هین": 8209,
      "هۆں": 8210,
      "وچی": 8211,
      "َّ": 8212,
      "پجاہ": 8213,
      "پڈا": 8214,
      "پگری": 8215,
      "ژنے": 8216,
      "کٹی": 8217,
      "کدّ": 8218,
      "گنوکیں": 8219,
      "ہَر": 8220,
      "ہپت": 8221,
      "ہندی": 8222,
      "ہنچیں": 8223,
      "…؟": 8224,
      "ﭘﯿ": 8225,
      "وتئ": 8226,
      "راش": 8227,
      "اَگاں": 8228,
      "دیوتا": 8229,
      "نگاں": 8230,
      "نگاری": 8231,
      "رودینت": 8232,
      "یکش": 8233,
      "یکجا": 8234,
      "میئے": 8235,
      "میڑی": 8236,
      "میوز": 8237,
      "ردل": 8238,
      "ایوب": 8239,
      "درّ": 8240,
      "درک": 8241,
      "درنیام": 8242,
      "سیسی": 8243,
      "سیستان": 8244,
      "کُدو": 8245,
      "جاڑی": 8246,
      "وکا": 8247,
      "پیڈ": 8248,
      "پیراں": 8249,
      "مردگ": 8250,
      "کیاں": 8251,
      "گُلام": 8252,
      "ھرمنوتیک": 8253,
      "مرہ": 8254,
      "ترسگ": 8255,
      "ترندی": 8256,
      "پدمنتگی": 8257,
      "وھدا": 8258,
      "گردی": 8259,
      "مارِشت": 8260,
      "جنّت": 8261,
      "جنێناں": 8262,
      "سوی": 8263,
      "سوری": 8264,
      "سوالی": 8265,
      "تیرے": 8266,
      "ٹیچر": 8267,
      "زانشتی": 8268,
      "ایتءُ": 8269,
      "لوٹیں": 8270,
      "پتّر": 8271,
      "بَت": 8272,
      "کلمت": 8273,
      "راجمان": 8274,
      "استین": 8275,
      "امیں": 8276,
      "بتلانی": 8277,
      "اُگ": 8278,
      "کّیں": 8279,
      "ھالو": 8280,
      "آپانی": 8281,
      "محبت": 8282,
      "دریدا": 8283,
      "پولین": 8284,
      "کانچ": 8285,
      "حاکمی": 8286,
      "شوروی": 8287,
      "مروز": 8288,
      "دردءُ": 8289,
      "کندیت": 8290,
      "لسٹ": 8291,
      "واہند": 8292,
      "ورنایے": 8293,
      "ھورت": 8294,
      "تُشے": 8295,
      "بیرم": 8296,
      "بُنءَ": 8297,
      "آزماں": 8298,
      "لچھانی": 8299,
      "نماس": 8300,
      "لاپءِ": 8301,
      "جاورے": 8302,
      "نشتیں": 8303,
      "شوھازءَ": 8304,
      "گرداں": 8305,
      "پیتی": 8306,
      "دُرّ": 8307,
      "بیستمی": 8308,
      "“””": 8309,
      "نصیب": 8310,
      "دانکاں": 8311,
      "ارزشتے": 8312,
      "مراگشے": 8313,
      "ردوست": 8314,
      "مُلکانی": 8315,
      "ترانگانی": 8316,
      "بھائیں": 8317,
      "سرھالانی": 8318,
      "واجکار": 8319,
      "پکرءُ": 8320,
      "خالد": 8321,
      "شانتل": 8322,
      "دزگٹ": 8323,
      "کمانڈر": 8324,
      "کنائینگ": 8325,
      "اَرز": 8326,
      "ھھھھھھھھ": 8327,
      "مردُمے": 8328,
      "مردینے": 8329,
      "واکیہ": 8330,
      "متاثر": 8331,
      "الکاپیں": 8332,
      "سوالک": 8333,
      "انڈیا": 8334,
      "گوَشت": 8335,
      "درامدیں": 8336,
      "ھردوئیں": 8337,
      "لوٹائینت": 8338,
      "تعلیمی": 8339,
      "جمہوری": 8340,
      "کشّاب": 8341,
      "گێشتر": 8342,
      "موسماں": 8343,
      "ﮬﻤﮯ": 8344,
      "جنازہ": 8345,
      "زْرمبشت": 8346,
      "((": 8347,
      "(.": 8348,
      "بتگ": 8349,
      "بشار": 8350,
      "تهر": 8351,
      "ثبب": 8352,
      "دُکّ": 8353,
      "سنٹ": 8354,
      "سندی": 8355,
      "شڑ": 8356,
      "شھی": 8357,
      "شطگ": 8358,
      "صک": 8359,
      "طئی": 8360,
      "عملی": 8361,
      "قبل": 8362,
      "مْ": 8363,
      "مکی": 8364,
      "مئیت": 8365,
      "نُکّ": 8366,
      "هبڑ": 8367,
      "وجو": 8368,
      "َه": 8369,
      "گیتک": 8370,
      "ھزانگ": 8371,
      "ہساب": 8372,
      "ێنگ": 8373,
      "ےْ": 8374,
      "ﺩﺭ": 8375,
      "اندگہ": 8376,
      "کہن": 8377,
      "کہی": 8378,
      "وتگڑیں": 8379,
      "اتءَ": 8380,
      "گومن": 8381,
      "اَب": 8382,
      "اَز": 8383,
      "اَں": 8384,
      "دیوی": 8385,
      "روشن": 8386,
      "ایرد": 8387,
      "توپ": 8388,
      "برجا": 8389,
      "برزی": 8390,
      "درانی": 8391,
      "مانزمان": 8392,
      "دوھزار": 8393,
      "چوپ": 8394,
      "وکّار": 8395,
      "منیگ": 8396,
      "لادی": 8397,
      "لینگ": 8398,
      "گُداں": 8399,
      "بانز": 8400,
      "دلءُ": 8401,
      "کوْ": 8402,
      "کولی": 8403,
      "ھرجاہ": 8404,
      "آیگ": 8405,
      "آدینک": 8406,
      "زیملی": 8407,
      "ترّینت": 8408,
      "موداں": 8409,
      "موسُ": 8410,
      "جیونی": 8411,
      "بُزر": 8412,
      "سکری": 8413,
      "پابند": 8414,
      "ھمایانی": 8415,
      "وَس": 8416,
      "کلانچ": 8417,
      "کلکشان": 8418,
      "شُشتگ": 8419,
      "شُبین": 8420,
      "اُمبر": 8421,
      "دَنز": 8422,
      "پیشدار": 8423,
      "گلانی": 8424,
      "ھالانی": 8425,
      "بالو": 8426,
      "نچُش": 8427,
      "چُکّے": 8428,
      "پُراں": 8429,
      "پِٹ": 8430,
      "لگیت": 8431,
      "ساچیں": 8432,
      "گُشتہ": 8433,
      "چِت": 8434,
      "احکا": 8435,
      "سمّی": 8436,
      "نندے": 8437,
      "نندیں": 8438,
      "کـَ": 8439,
      "یلیں": 8440,
      "علیؔ": 8441,
      "علیم": 8442,
      "رِدانکی": 8443,
      "مھرداد": 8444,
      "کولواہ": 8445,
      "مڑدمانی": 8446,
      "دربرتگ": 8447,
      "تُربت": 8448,
      "نماذ": 8449,
      "نبیسّی": 8450,
      "کماشاں": 8451,
      "کالب": 8452,
      "کوٹیءِ": 8453,
      "ساچشتکار": 8454,
      "عہدءِ": 8455,
      "شاںی": 8456,
      "منتوار": 8457,
      "ھِشت": 8458,
      "گسءَ": 8459,
      "کیچءَ": 8460,
      "آماچیں": 8461,
      "نُور": 8462,
      "کتابی": 8463,
      "گرامر": 8464,
      "آبادیں": 8465,
      "سرور": 8466,
      "ٹَپّ": 8467,
      "گھڑی": 8468,
      "بیگاہءَ": 8469,
      "ناریت": 8470,
      "مذه": 8471,
      "درگتءَ": 8472,
      "پرائ": 8473,
      "اندرءَ": 8474,
      "بجلی": 8475,
      "هَـکـیـ": 8476,
      "مسافر": 8477,
      "نوشکے": 8478,
      "پنجابی": 8479,
      "رپک": 8480,
      "ھاکمانی": 8481,
      "عادل": 8482,
      "گوریچانی": 8483,
      "آدت": 8484,
      "شاھگان": 8485,
      "عنبر": 8486,
      "رخشانی": 8487,
      "دُراہیں": 8488,
      "وشتریں": 8489,
      "میڑیا": 8490,
      "نظریہ": 8491,
      "مسکرہ": 8492,
      "مڈام": 8493,
      "آسرءَ": 8494,
      "آجز": 8495,
      "ئُ": 8496,
      "دس": 8497,
      "ذال": 8498,
      "ذکر": 8499,
      "رچ": 8500,
      "رضی": 8501,
      "زَگ": 8502,
      "سھی": 8503,
      "شئ": 8504,
      "شِر": 8505,
      "طرا": 8506,
      "ـہ": 8507,
      "ـانـی": 8508,
      "فیت": 8509,
      "مٹی": 8510,
      "هنچو": 8511,
      "هلاس": 8512,
      "ڈںیا": 8513,
      "ﭘﺪ": 8514,
      "ﺸﺘ": 8515,
      "ﻟﻮ": 8516,
      "ءَوتی": 8517,
      "نتی": 8518,
      "منط": 8519,
      "ماح": 8520,
      "بلۆچ": 8521,
      "یکءُ": 8522,
      "نیوز": 8523,
      "ورگی": 8524,
      "ھمسا": 8525,
      "ھمراھاں": 8526,
      "بوتن": 8527,
      "واڈیلہ": 8528,
      "برطانی": 8529,
      "درپ": 8530,
      "درءِ": 8531,
      "مانپوش": 8532,
      "بلوٹ": 8533,
      "مردانی": 8534,
      "مردمی": 8535,
      "ادءِ": 8536,
      "لیمان": 8537,
      "دارءُ": 8538,
      "کونی": 8539,
      "شازاد": 8540,
      "زینت": 8541,
      "زیمری": 8542,
      "کرناں": 8543,
      "کرطگ": 8544,
      "بندوکیں": 8545,
      "پدرد": 8546,
      "جیئند": 8547,
      "ہمرائی": 8548,
      "مہری": 8549,
      "بوری": 8550,
      "مُلّ": 8551,
      "تیو": 8552,
      "وَتـ": 8553,
      "پتے": 8554,
      "بَڈّ": 8555,
      "ھاکمی": 8556,
      "پُو": 8557,
      "امبار": 8558,
      "آزمانءَ": 8559,
      "لّم": 8560,
      "درویش": 8561,
      "اُن": 8562,
      "ماتءُ": 8563,
      "زاھد": 8564,
      "رَم": 8565,
      "گوشتانک": 8566,
      "خانءِ": 8567,
      "جواں": 8568,
      "کِی": 8569,
      "دریگاں": 8570,
      "زوران": 8571,
      "مراگاہ": 8572,
      "هرچ": 8573,
      "شکست": 8574,
      "پِٹّ": 8575,
      "گْوشیت": 8576,
      "پلستین": 8577,
      "شہار": 8578,
      "اوشتاری": 8579,
      "چهبار": 8580,
      "براه": 8581,
      "ھانہ": 8582,
      "نازُر": 8583,
      "بروبر": 8584,
      "زمزی": 8585,
      "ندارگانی": 8586,
      "شاعریءَ": 8587,
      "ودّان": 8588,
      "آدمے": 8589,
      "بوتاںءُ": 8590,
      "راجدپترءَ": 8591,
      "بازارے": 8592,
      "بازارءِ": 8593,
      "حیالانی": 8594,
      "ڈنّی": 8595,
      "پھریزگ": 8596,
      "بڑجم": 8597,
      "شھرءَ": 8598,
      "عطاءِ": 8599,
      "بیستءُ": 8600,
      "ہوئے": 8601,
      "دیوالے": 8602,
      "تْرمپ": 8603,
      "سرکارءَ": 8604,
      "زاهڈاں": 8605,
      "تھرانی": 8606,
      "جمعهءِ": 8607,
      "شوہازگ": 8608,
      "ہزاراں": 8609,
      "سادگیں": 8610,
      "نگاھاں": 8611,
      "آفندی": 8612,
      "تسلا": 8613,
      "رَوَگ": 8614,
      "استالاں": 8615,
      "پجّی": 8616,
      "ںماظ": 8617,
      "حکیمؔ": 8618,
      "نفسیاتی": 8619,
      "لنکُ": 8620,
      "آھیءِ": 8621,
      "چماّں": 8622,
      "اسداللہ": 8623,
      "اَلّم": 8624,
      "مقابلہ": 8625,
      "بـوُت": 8626,
      "شوڑوی": 8627,
      "قبضہ": 8628,
      "گلائیش": 8629,
      "''": 8630,
      "ابابت": 8631,
      "بنزہ": 8632,
      "تلی": 8633,
      "تبے": 8634,
      "ثتاں": 8635,
      "رز": 8636,
      "ریتک": 8637,
      "زدگ": 8638,
      "زگری": 8639,
      "سز": 8640,
      "سوھ": 8641,
      "شلو": 8642,
      "صبر": 8643,
      "طال": 8644,
      "قیوم": 8645,
      "مگیں": 8646,
      "نکا": 8647,
      "ُند": 8648,
      "ِے": 8649,
      "ّنی": 8650,
      "چڑ": 8651,
      "چندر": 8652,
      "کط": 8653,
      "گپی": 8654,
      "گمے": 8655,
      "ھوا": 8656,
      "یـ": 8657,
      "‏(": 8658,
      "ﭼﻪ": 8659,
      "ﯿﻦ": 8660,
      "ﺍﮞ": 8661,
      "ﻤﺎ": 8662,
      "ﻨﮓ": 8663,
      "انام": 8664,
      "اِلاج": 8665,
      "گوی": 8666,
      "اَبد": 8667,
      "ماھو": 8668,
      "یکتا": 8669,
      "ریٹ": 8670,
      "ریـں": 8671,
      "ھمت": 8672,
      "ھمل": 8673,
      "بیبیت": 8674,
      "توف": 8675,
      "توم": 8676,
      "چولانی": 8677,
      "ادے": 8678,
      "لوگا": 8679,
      "آروس": 8680,
      "شائی": 8681,
      "مرچ": 8682,
      "گرءَ": 8683,
      "گرتاں": 8684,
      "کپن": 8685,
      "تئیگ": 8686,
      "اسپین": 8687,
      "سکندر": 8688,
      "جنزے": 8689,
      "گالریچ": 8690,
      "زانتیں": 8691,
      "همۆ": 8692,
      "پُور": 8693,
      "کَنڈ": 8694,
      "ڈاشت": 8695,
      "شُم": 8696,
      "شُشت": 8697,
      "امێ": 8698,
      "رنگےءَ": 8699,
      "ھونی": 8700,
      "اُرد": 8701,
      "ماتاں": 8702,
      "مدئے": 8703,
      "پادے": 8704,
      "پادءِ": 8705,
      "دُعا": 8706,
      "شانزدہ": 8707,
      "دْروت": 8708,
      "شومیں": 8709,
      "نِمدی": 8710,
      "بهار": 8711,
      "واہگانی": 8712,
      "براھ": 8713,
      "لَٹّ": 8714,
      "ھنداں": 8715,
      "ھورکیں": 8716,
      "نَبیسّ": 8717,
      "ماشٹر": 8718,
      "لچھ": 8719,
      "پیره": 8720,
      "پشتو": 8721,
      "مولاناءَ": 8722,
      "دیرءَ": 8723,
      "سپرے": 8724,
      "سبزی": 8725,
      "یکیم": 8726,
      "چرائیءَ": 8727,
      "ڈگاراں": 8728,
      "گواتءِ": 8729,
      "دُرس": 8730,
      "کنوکے": 8731,
      "تـگ": 8732,
      "رکّینگ": 8733,
      "گڑتی": 8734,
      "ھوٹلے": 8735,
      "قربانی": 8736,
      "سروکی": 8737,
      "دیوالاں": 8738,
      "گیشینت": 8739,
      "بیگواھی": 8740,
      "اِیشی": 8741,
      "ہمیشانی": 8742,
      "پاگواجہ": 8743,
      "یَد": 8744,
      "یونان": 8745,
      "دئیاں": 8746,
      "روایتی": 8747,
      "گْرانیں": 8748,
      "وپتگیں": 8749,
      "لَگّ": 8750,
      "کـنَـگ": 8751,
      "یعقو": 8752,
      "ذاهدان": 8753,
      "نادرشاہ": 8754,
      "ہمیشی": 8755,
      "رکشانی": 8756,
      "غُلام": 8757,
      "جںێںاں": 8758,
      "ثناء": 8759,
      "مانشانتگ": 8760,
      "یھودی": 8761,
      "-,,": 8762,
      "آوتی": 8763,
      "آسی": 8764,
      "آمین": 8765,
      "اسا": 8766,
      "بقول": 8767,
      "جول": 8768,
      "دںیا": 8769,
      "رژنائی": 8770,
      "زراب": 8771,
      "سورت": 8772,
      "شپا": 8773,
      "ضر": 8774,
      "عضی": 8775,
      "فلم": 8776,
      "قات": 8777,
      "كر": 8778,
      "مۓ": 8779,
      "مہم": 8780,
      "مسال": 8781,
      "نژ": 8782,
      "نۆکێں": 8783,
      "وخت": 8784,
      "َؤ": 8785,
      "ُشت": 8786,
      "ِگ": 8787,
      "پلو": 8788,
      "پــ": 8789,
      "پُک": 8790,
      "چپی": 8791,
      "چداں": 8792,
      "چـیـ": 8793,
      "کئ": 8794,
      "کطگ": 8795,
      "کچّ": 8796,
      "کھب": 8797,
      "گنڈ": 8798,
      "ھبی": 8799,
      "ھدو": 8800,
      "ھمین": 8801,
      "ہف": 8802,
      "ہرد": 8803,
      "ہردو": 8804,
      "یط": 8805,
      "‏)": 8806,
      "“،": 8807,
      "ﭘﮧ": 8808,
      "ﺋﯽ": 8809,
      "ﻭﺷ": 8810,
      "ارمانی": 8811,
      "رآ": 8812,
      "رای": 8813,
      "گوس": 8814,
      "اَدار": 8815,
      "دیئنت": 8816,
      "مائ": 8817,
      "ماجد": 8818,
      "بلیں": 8819,
      "بلُک": 8820,
      "روایر": 8821,
      "نیلیں": 8822,
      "سرچ": 8823,
      "داط": 8824,
      "کنر": 8825,
      "ایڑان": 8826,
      "ایجوکی": 8827,
      "اَنتء": 8828,
      "بره": 8829,
      "درزی": 8830,
      "گیس": 8831,
      "گیچ": 8832,
      "گیراں": 8833,
      "کُلان": 8834,
      "جامع": 8835,
      "لاگر": 8836,
      "لیوی": 8837,
      "ساهگ": 8838,
      "وانَگ": 8839,
      "گُژ": 8840,
      "گُپت": 8841,
      "گُرک": 8842,
      "بندیک": 8843,
      "ترسے": 8844,
      "مارت": 8845,
      "کافی": 8846,
      "وڑگ": 8847,
      "زمانہ": 8848,
      "دستا": 8849,
      "پائی": 8850,
      "ڈیم": 8851,
      "ڈیپارٹمنٹ": 8852,
      "بَے": 8853,
      "نوکتریں": 8854,
      "کلان": 8855,
      "جُمپ": 8856,
      "ولّ": 8857,
      "استان": 8858,
      "مَچّ": 8859,
      "سُلیمان": 8860,
      "دومیءِ": 8861,
      "عرض": 8862,
      "گلگدار": 8863,
      "پادءَ": 8864,
      "دراھی": 8865,
      "جوھر": 8866,
      "کِمار": 8867,
      "ھیالی": 8868,
      "چُٹّ": 8869,
      "هرگوشک": 8870,
      "گریفیت": 8871,
      "پُرشت": 8872,
      "چِتگ": 8873,
      "ھاریں": 8874,
      "دیستیں": 8875,
      "مِل": 8876,
      "ھواریں": 8877,
      "وانینتگ": 8878,
      "رھبندانی": 8879,
      "المّی": 8880,
      "گُلزمین": 8881,
      "گِندیں": 8882,
      "عیون": 8883,
      "بزانتیں": 8884,
      "گاڑیءَ": 8885,
      "ـرّ": 8886,
      "سینکل": 8887,
      "بھتام": 8888,
      "کشّان": 8889,
      "ڈوبار": 8890,
      "اینکس": 8891,
      "اینچک": 8892,
      "بُوگی": 8893,
      "گْواچن": 8894,
      "نشانے": 8895,
      "اۆڈ": 8896,
      "؟؟؟؟": 8897,
      "ڈَکّ": 8898,
      "شَرّی": 8899,
      "آدینگ": 8900,
      "ٹَکّ": 8901,
      "ابرار": 8902,
      "قومءِ": 8903,
      "کھڑکی": 8904,
      "روچیگیں": 8905,
      "قصّہ": 8906,
      "پُترگ": 8907,
      "۔۔۔؟‘‘": 8908,
      "وانندگ": 8909,
      "وانندگیں": 8910,
      "فلسفی": 8911,
      "کُٹم": 8912,
      "تجربگ": 8913,
      "ﺑﺎﻥ": 8914,
      "ترمپے": 8915,
      "کامیو": 8916,
      "مرڈماںی": 8917,
      "ﺪﺍﺭ": 8918,
      "ںماز": 8919,
      "سھتے": 8920,
      "========": 8921,
      "اندازہ": 8922,
      "ڈلگۆش": 8923,
      "سسٹم": 8924,
      "اللح": 8925,
      "نیمونے": 8926,
      "اعظم": 8927,
      "عضیض": 8928,
      "-)": 8929,
      ".(": 8930,
      "آگا": 8931,
      "آزادی": 8932,
      "امل": 8933,
      "اجت": 8934,
      "اھمد": 8935,
      "تخلی": 8936,
      "ثَ": 8937,
      "جیت": 8938,
      "حبی": 8939,
      "دجک": 8940,
      "رچگ": 8941,
      "طیو": 8942,
      "عبید": 8943,
      "عین": 8944,
      "كن": 8945,
      "لغ": 8946,
      "هاس": 8947,
      "هلک": 8948,
      "وِ": 8949,
      "ومن": 8950,
      "َــ": 8951,
      "پءُ": 8952,
      "وتکشی": 8953,
      "اتو": 8954,
      "گوہار": 8955,
      "الوجی": 8956,
      "البرٹ": 8957,
      "ئیگی": 8958,
      "مادر": 8959,
      "رود": 8960,
      "میشی": 8961,
      "ورڈ": 8962,
      "نادی": 8963,
      "نادینت": 8964,
      "سرٹیف": 8965,
      "داوا": 8966,
      "بیئگ": 8967,
      "کارجاہ": 8968,
      "درگاہ": 8969,
      "لیے": 8970,
      "کساں": 8971,
      "گپتہ": 8972,
      "کوار": 8973,
      "اگان": 8974,
      "بزرگ": 8975,
      "بندان": 8976,
      "ترءَ": 8977,
      "مومؔ": 8978,
      "گرگءَ": 8979,
      "وارتگیں": 8980,
      "ہمُک": 8981,
      "ــت": 8982,
      "مُرا": 8983,
      "جہلءَ": 8984,
      "وھدءُ": 8985,
      "پاڈ": 8986,
      "تیرانی": 8987,
      "ُکاں": 8988,
      "ٹیءَ": 8989,
      "وَگءَ": 8990,
      "وَھد": 8991,
      "وَهـ": 8992,
      "کلاں": 8993,
      "راجکاری": 8994,
      "پُتی": 8995,
      "چیزّے": 8996,
      "ایرانءَ": 8997,
      "نزردوست": 8998,
      "دمبر": 8999,
      "شپاد": 9000,
      "پسانی": 9001,
      "سُچ": 9002,
      "بالگ": 9003,
      "کُرّ": 9004,
      "بادگیر": 9005,
      "چاگرداں": 9006,
      "سیدھاشمی": 9007,
      "پروم": 9008,
      "ماہءِ": 9009,
      "کانٹ": 9010,
      "مرچیگ": 9011,
      "شکور": 9012,
      "پِنڈ": 9013,
      "تَھا": 9014,
      "………": 9015,
      "ورناھاں": 9016,
      "بنداتءَ": 9017,
      "ھَکّ": 9018,
      "جنینءَ": 9019,
      "جارے": 9020,
      "اصلی": 9021,
      "شادمانی": 9022,
      "کورءَ": 9023,
      "کورءِ": 9024,
      "سہت": 9025,
      "نازؔ": 9026,
      "جنکءَ": 9027,
      "مڑدم": 9028,
      "سپرنامگ": 9029,
      "بـے": 9030,
      "اڑاند": 9031,
      "ابدی": 9032,
      "سازیں": 9033,
      "آدمءَ": 9034,
      "اُستا": 9035,
      "بُرزءَ": 9036,
      "تامرے": 9037,
      "وشیاں": 9038,
      "لیکن": 9039,
      "بچکندگے": 9040,
      "فارم": 9041,
      "پگرے": 9042,
      "اورحان": 9043,
      "تـَ": 9044,
      "رکّین": 9045,
      "چـا": 9046,
      "زِندگ": 9047,
      "فتار": 9048,
      "ــــــــــ": 9049,
      "تھرے": 9050,
      "پجاروکی": 9051,
      "کْوہ": 9052,
      "صباء": 9053,
      "گاڈیءَ": 9054,
      "امریک": 9055,
      "بجٹ": 9056,
      "لانچءِ": 9057,
      "نوبتاں": 9058,
      "اُمرے": 9059,
      "دنزاں": 9060,
      "کسّھے": 9061,
      "کْوھن": 9062,
      "دلوتانی": 9063,
      "الکاپ": 9064,
      "پمّا": 9065,
      "پهکێن": 9066,
      "لذت": 9067,
      "گنجائش": 9068,
      "ﻧﺎﻭ": 9069,
      "شروع": 9070,
      "لقمان": 9071,
      "عبدالصمد": 9072,
      "ڈرائیور": 9073,
      "ںێمگ": 9074,
      "گزابیک": 9075,
      "لهطێں": 9076,
      "ھمراھداری": 9077,
      "مومؔن": 9078,
      "ؔء": 9079,
      "آچ": 9080,
      "آرو": 9081,
      "آھان": 9082,
      "ئس": 9083,
      "اہم": 9084,
      "بغ": 9085,
      "بشتہ": 9086,
      "جلی": 9087,
      "خاتر": 9088,
      "زمت": 9089,
      "سجّ": 9090,
      "شْ": 9091,
      "شکے": 9092,
      "شـت": 9093,
      "طب": 9094,
      "ظی": 9095,
      "قح": 9096,
      "قراط": 9097,
      "مشی": 9098,
      "مداں": 9099,
      "متے": 9100,
      "مصل": 9101,
      "هپت": 9102,
      "وروک": 9103,
      "َن": 9104,
      "پجی": 9105,
      "چانگ": 9106,
      "چپل": 9107,
      "ڈَگ": 9108,
      "ڑءَ": 9109,
      "ںائ": 9110,
      "ۆڑی": 9111,
      "ﺗﮓ": 9112,
      "ﺯﺑﺎﻥ": 9113,
      "ارو": 9114,
      "منٹو": 9115,
      "راجم": 9116,
      "راَنت": 9117,
      "اِہ": 9118,
      "اللّ": 9119,
      "روں": 9120,
      "یکدم": 9121,
      "ریشاں": 9122,
      "نیما": 9123,
      "ھمگْرنچ": 9124,
      "بیوکیں": 9125,
      "کنات": 9126,
      "واش": 9127,
      "وائیں": 9128,
      "برْ": 9129,
      "سیڈ": 9130,
      "اَتء": 9131,
      "کُنّت": 9132,
      "تاچ": 9133,
      "تاگ": 9134,
      "لولو": 9135,
      "داروک": 9136,
      "گُوش": 9137,
      "بزر": 9138,
      "آہ": 9139,
      "آیان": 9140,
      "کرگوشک": 9141,
      "مرگے": 9142,
      "ہمساہ": 9143,
      "نبشط": 9144,
      "بوگءِ": 9145,
      "کتار": 9146,
      "مارشتی": 9147,
      "بُور": 9148,
      "اسے": 9149,
      "چاڑے": 9150,
      "ملنگ": 9151,
      "مزنی": 9152,
      "نیمءَ": 9153,
      "زانہ": 9154,
      "لوٹانی": 9155,
      "پتاتگ": 9156,
      "چمّگ": 9157,
      "کُتاں": 9158,
      "جُھدے": 9159,
      "گشیں": 9160,
      "ڈاہ": 9161,
      "گےءَ": 9162,
      "لّے": 9163,
      "دمکے": 9164,
      "مَار": 9165,
      "زرناز": 9166,
      "بسءِ": 9167,
      "دراهیں": 9168,
      "دُژ": 9169,
      "گواھی": 9170,
      "کُرسی": 9171,
      "گُشگءَ": 9172,
      "کِنز": 9173,
      "کِسہ": 9174,
      "جوڑشت": 9175,
      "فیہ": 9176,
      "زانگءَ": 9177,
      "شکورے": 9178,
      "آرٹس": 9179,
      "دردءِ": 9180,
      "آسانی": 9181,
      "شہزادی": 9182,
      "طائر": 9183,
      "دِگے": 9184,
      "نگیگیں": 9185,
      "شادان": 9186,
      "شاعرءِ": 9187,
      "اردوءَ": 9188,
      "().": 9189,
      "ولیداد": 9190,
      "بایدیں": 9191,
      "افغان": 9192,
      "موسمءَ": 9193,
      "لِک": 9194,
      "لیکگ": 9195,
      "بھرام": 9196,
      "کلاسءِ": 9197,
      "ہوئی": 9198,
      "مبارکی": 9199,
      "آجوئیں": 9200,
      "۔۔!‘‘": 9201,
      "بيا": 9202,
      "هَـم": 9203,
      "نگدکاری": 9204,
      "زامران": 9205,
      "ٹُکر": 9206,
      "چدءُ": 9207,
      "نِشتگءُ": 9208,
      "دلجمیں": 9209,
      "ﺍﻧﯽ": 9210,
      "مکتبی": 9211,
      "دوزواہ": 9212,
      "بیثہ": 9213,
      "بانزلاں": 9214,
      "عنقا": 9215,
      "رودینتگ": 9216,
      "داخل": 9217,
      "بوئوکیں": 9218,
      "نعمت": 9219,
      "دلوش": 9220,
      "روانبدؔ": 9221,
      "پرّیس": 9222,
      "خلاف": 9223,
      "هۆنێں": 9224,
      "پدوند": 9225,
      "مُدّتے": 9226,
      "لائبریری": 9227,
      "آما": 9228,
      "ؤل": 9229,
      "اسی": 9230,
      "بڑی": 9231,
      "بکّ": 9232,
      "بگْوش": 9233,
      "جط": 9234,
      "حدود": 9235,
      "خمینی": 9236,
      "دماگ": 9237,
      "سْر": 9238,
      "شَہہ": 9239,
      "عق": 9240,
      "كاں": 9241,
      "مچی": 9242,
      "مڈل": 9243,
      "نست": 9244,
      "هوٹ": 9245,
      "وٙ": 9246,
      "وَہ": 9247,
      "وقت": 9248,
      "َس": 9249,
      "ٹھک": 9250,
      "پوک": 9251,
      "پنو": 9252,
      "پانگ": 9253,
      "ڈنگر": 9254,
      "ڑنگ": 9255,
      "ژی": 9256,
      "کپی": 9257,
      "ھاز": 9258,
      "ھردیں": 9259,
      "ہدا": 9260,
      "ہردیں": 9261,
      "ﯾﺎ": 9262,
      "ﺑﮧ": 9263,
      "🌷🌷": 9264,
      "انگی": 9265,
      "یتاں": 9266,
      "گوہ": 9267,
      "الا": 9268,
      "الْ": 9269,
      "اَوَل": 9270,
      "ماشین": 9271,
      "بلاه": 9272,
      "نیاز": 9273,
      "بیح": 9274,
      "کاردار": 9275,
      "برنج": 9276,
      "پہمگ": 9277,
      "درملک": 9278,
      "گیءَ": 9279,
      "دوہیں": 9280,
      "کُدر": 9281,
      "تامیں": 9282,
      "کیٹ": 9283,
      "وانکی": 9284,
      "دارالعلوم": 9285,
      "گپان": 9286,
      "دلبر": 9287,
      "آز": 9288,
      "چارءُ": 9289,
      "چارایت": 9290,
      "جیب": 9291,
      "نوآبادی": 9292,
      "گرانت": 9293,
      "مہروانیں": 9294,
      "ماںی": 9295,
      "مارءَ": 9296,
      "کپیں": 9297,
      "نبشتھی": 9298,
      "بُنیاد": 9299,
      "جنے": 9300,
      "کمبل": 9301,
      "کشءُ": 9302,
      "مُشتگ": 9303,
      "زانتکارے": 9304,
      "بَری": 9305,
      "همراهی": 9306,
      "کَٹ": 9307,
      "دمگی": 9308,
      "آیه": 9309,
      "آیگءَ": 9310,
      "مَکّ": 9311,
      "ھتم": 9312,
      "سُچگ": 9313,
      "زرّاں": 9314,
      "سنگانی": 9315,
      "اِیتءُ": 9316,
      "پادری": 9317,
      "سَی": 9318,
      "سَیل": 9319,
      "سیاہی": 9320,
      "شمئی": 9321,
      "پروشی": 9322,
      "هرکس": 9323,
      "تَم": 9324,
      "تَپ": 9325,
      "سِستگ": 9326,
      "ینانی": 9327,
      "بھرءَ": 9328,
      "عبدالله": 9329,
      "مِہ": 9330,
      "لَس": 9331,
      "مسقط": 9332,
      "گپتءُ": 9333,
      "اصت": 9334,
      "زِیر": 9335,
      "کورٹ": 9336,
      "نَزّ": 9337,
      "مرادانی": 9338,
      "وانینت": 9339,
      "آتکگیں": 9340,
      "تُرسے": 9341,
      "پیرل": 9342,
      "چستءُ": 9343,
      "گـَ": 9344,
      "دزمال": 9345,
      "مہرءِ": 9346,
      "دراہینت": 9347,
      "ڈگارے": 9348,
      "ازمءِ": 9349,
      "پَّگ": 9350,
      "پشّ": 9351,
      "شریدار": 9352,
      "شھرے": 9353,
      "چنال": 9354,
      "لیکو": 9355,
      "تچکءَ": 9356,
      "زوتاں": 9357,
      "شھزانتی": 9358,
      "دِلگوش": 9359,
      "اۆپار": 9360,
      "قربان": 9361,
      "برکتءَ": 9362,
      "کرنءِ": 9363,
      "بگنداں": 9364,
      "اختیار": 9365,
      "ساھدار": 9366,
      "ٹالسٹ": 9367,
      "نگدکار": 9368,
      "اصغرزہیر": 9369,
      "رمضان": 9370,
      "طرف": 9371,
      "سوچیت": 9372,
      "زھنی": 9373,
      "جمبرانی": 9374,
      "فقار": 9375,
      "سوشلزم": 9376,
      "یونس": 9377,
      "پازلءِ": 9378,
      "بحث": 9379,
      "سبزلؔ": 9380,
      "ایلف": 9381,
      "سُہریں": 9382,
      "اٙت": 9383,
      "دوکانءَ": 9384,
      "داخلہ": 9385,
      "پرماتگ": 9386,
      "مـنـی": 9387,
      "چیلنج": 9388,
      "بیمناکیں": 9389,
      "ماہیکان": 9390,
      "رمزان": 9391,
      "بُوھگ": 9392,
      "ایجوکیشن": 9393,
      "کُلانچی": 9394,
      "!؟": 9395,
      "؁)": 9396,
      "آدینکے": 9397,
      "تانا": 9398,
      "جتک": 9399,
      "حیا": 9400,
      "دمی": 9401,
      "دڑا": 9402,
      "ذوال": 9403,
      "زہم": 9404,
      "صکّ": 9405,
      "طری": 9406,
      "قدیمی": 9407,
      "لڑے": 9408,
      "لفظ": 9409,
      "مبی": 9410,
      "نح": 9411,
      "نبوتگ": 9412,
      "نعت": 9413,
      "هراب": 9414,
      "وھم": 9415,
      "ُڑ": 9416,
      "ٹیں": 9417,
      "ٹوہ": 9418,
      "ٹاک": 9419,
      "پدگ": 9420,
      "چــ": 9421,
      "ڑص": 9422,
      "کۏ": 9423,
      "کؤر": 9424,
      "گانیں": 9425,
      "ہپتگ": 9426,
      "ۆجیل": 9427,
      "یـے": 9428,
      "ێشی": 9429,
      "۰۱": 9430,
      "۱۴": 9431,
      "ﯾﮑ": 9432,
      "ﺩﮔ": 9433,
      "ﺯﮬ": 9434,
      "ﺳﺮﺍ": 9435,
      "ﻧﻮ": 9436,
      "ارسے": 9437,
      "اتکہ": 9438,
      "اِتوں": 9439,
      "شتءُ": 9440,
      "دیگا": 9441,
      "بامسار": 9442,
      "ناکہ": 9443,
      "چیھال": 9444,
      "تگے": 9445,
      "بیھ": 9446,
      "بیسہ": 9447,
      "کارگ": 9448,
      "کارئے": 9449,
      "واپی": 9450,
      "بہہ": 9451,
      "سیءَ": 9452,
      "کُٹی": 9453,
      "جاد": 9454,
      "جاسک": 9455,
      "پیل": 9456,
      "سامی": 9457,
      "کسم": 9458,
      "کسھاں": 9459,
      "گُبار": 9460,
      "گُراب": 9461,
      "اوَ": 9462,
      "ھیا": 9463,
      "شاهی": 9464,
      "یاسین": 9465,
      "ماںگ": 9466,
      "بوگی": 9467,
      "اسلءَ": 9468,
      "اسپتیں": 9469,
      "چائ": 9470,
      "جنکیں": 9471,
      "پامک": 9472,
      "مزنے": 9473,
      "تراش": 9474,
      "ٹیٹ": 9475,
      "پتاں": 9476,
      "بَستگ": 9477,
      "ہرکسی": 9478,
      "پُرو": 9479,
      "پُون": 9480,
      "پُھل": 9481,
      "پُلیں": 9482,
      "گشگءَ": 9483,
      "گندی": 9484,
      "ولے": 9485,
      "شُو": 9486,
      "شُوم": 9487,
      "جانے": 9488,
      "نزار": 9489,
      "گِہ": 9490,
      "اُمّ": 9491,
      "دَوا": 9492,
      "سُدّ": 9493,
      "وابءِ": 9494,
      "جنگلءَ": 9495,
      "تاکءَ": 9496,
      "دُگ": 9497,
      "دانا": 9498,
      "داناں": 9499,
      "جهگیر": 9500,
      "پوشتگ": 9501,
      "مستانی": 9502,
      "چِک": 9503,
      "انساناں": 9504,
      "بچکاں": 9505,
      "بچکانی": 9506,
      "دیستگیں": 9507,
      "مِن": 9508,
      "رِدا": 9509,
      "دمانےءَ": 9510,
      "نَد": 9511,
      "کُرتگیں": 9512,
      "بچاریت": 9513,
      "سدلی": 9514,
      "رھبنداں": 9515,
      "روتگ": 9516,
      "یوٹ": 9517,
      "نشتہ": 9518,
      "سٹری": 9519,
      "ریچگ": 9520,
      "اردوءِ": 9521,
      "براتے": 9522,
      "گِندئے": 9523,
      "کماشے": 9524,
      "کماشءَ": 9525,
      "پّاس": 9526,
      "پونے": 9527,
      "استادے": 9528,
      "گردان": 9529,
      "دُرسیں": 9530,
      "درچکاں": 9531,
      "لیکھ": 9532,
      "لیکچر": 9533,
      "شائرانی": 9534,
      "پڑے": 9535,
      "کلاتءَ": 9536,
      "بُوگءَ": 9537,
      "ساھتءَ": 9538,
      "لالچ": 9539,
      "سرون": 9540,
      "تْرُ": 9541,
      "مُلکءِ": 9542,
      "دْرچکانی": 9543,
      "دْرچکے": 9544,
      "زاهداں": 9545,
      "قلندر": 9546,
      "دهکان": 9547,
      "دریگتے": 9548,
      "سیتا": 9549,
      "مَـن": 9550,
      "تچیت": 9551,
      "گومازی": 9552,
      "کلمکار": 9553,
      "اِزمکار": 9554,
      "دژمناں": 9555,
      "دِرّ": 9556,
      "بهرے": 9557,
      "وردنی": 9558,
      "سگریٹے": 9559,
      "کثہ": 9560,
      "کنڈگ": 9561,
      "تماشا": 9562,
      "پراہیوٹ": 9563,
      "تحصیل": 9564,
      "سوداگر": 9565,
      "آئـیءَ": 9566,
      "ماہیگ": 9567,
      "شموشتگ": 9568,
      "آواران": 9569,
      "جَہل": 9570,
      "ﮐﻨﮓ": 9571,
      "مالومداری": 9572,
      "ھنیپ": 9573,
      "ھسابے": 9574,
      "پشومانی": 9575,
      "سنگینیں": 9576,
      "مُدتے": 9577,
      "هسابجار": 9578,
      "لهتێں": 9579,
      "افریقہ": 9580,
      "بُنتواری": 9581,
      "پاؤلو": 9582,
      "ءﹶ": 9583,
      "آبے": 9584,
      "آزا": 9585,
      "ئاں": 9586,
      "تکے": 9587,
      "تتکگ": 9588,
      "تخت": 9589,
      "ثیر": 9590,
      "ثطان": 9591,
      "جوک": 9592,
      "جُر": 9593,
      "حدیث": 9594,
      "خو": 9595,
      "خواہ": 9596,
      "دّی": 9597,
      "رنجی": 9598,
      "رتکگ": 9599,
      "زڑ": 9600,
      "سبوت": 9601,
      "سطاں": 9602,
      "شوان": 9603,
      "عون": 9604,
      "عاص": 9605,
      "عجبیں": 9606,
      "كار": 9607,
      "مدگ": 9608,
      "مچّ": 9609,
      "ننکہ": 9610,
      "هک": 9611,
      "هاشمی": 9612,
      "وئیں": 9613,
      "وداری": 9614,
      "َنگ": 9615,
      "ُٹ": 9616,
      "ِری": 9617,
      "ّگی": 9618,
      "ٹسٹ": 9619,
      "پوشیں": 9620,
      "ھسن": 9621,
      "ہاک": 9622,
      "ۆکان": 9623,
      "۔،،": 9624,
      "”(": 9625,
      "ﮕﯿﮟ": 9626,
      "ﯾﺖ": 9627,
      "ﺋﮯ": 9628,
      "ﺟﻮ": 9629,
      "ﻧﯿ": 9630,
      "انجن": 9631,
      "وتک": 9632,
      "منج": 9633,
      "یتے": 9634,
      "راپ": 9635,
      "رادگ": 9636,
      "ندکارانی": 9637,
      "الما": 9638,
      "اَکس": 9639,
      "دیناں": 9640,
      "بله": 9641,
      "بلَے": 9642,
      "رینگ": 9643,
      "باڈ": 9644,
      "باکس": 9645,
      "باوری": 9646,
      "ورئے": 9647,
      "نائیں": 9648,
      "ناگہ": 9649,
      "ھمروچ": 9650,
      "ھمدپ": 9651,
      "داز": 9652,
      "بیگی": 9653,
      "کارِست": 9654,
      "برگءَ": 9655,
      "دوسد": 9656,
      "کُلو": 9657,
      "کُون": 9658,
      "جاز": 9659,
      "تاہی": 9660,
      "پیپر": 9661,
      "لاشار": 9662,
      "لوٹی": 9663,
      "دارگءِ": 9664,
      "گُلاب": 9665,
      "بانك": 9666,
      "زیبدار": 9667,
      "کران": 9668,
      "تراں": 9669,
      "دیماں": 9670,
      "ہمگرنچ": 9671,
      "مہار": 9672,
      "بون": 9673,
      "بوں": 9674,
      "بوشت": 9675,
      "اسکولے": 9676,
      "چاڑی": 9677,
      "کشّاں": 9678,
      "مُنج": 9679,
      "َگءِ": 9680,
      "پاپول": 9681,
      "ڈیہہ": 9682,
      "ترام": 9683,
      "ازا": 9684,
      "جاہد": 9685,
      "وَرا": 9686,
      "بَسّ": 9687,
      "نوکاپ": 9688,
      "همبل": 9689,
      "پُلگ": 9690,
      "گندان": 9691,
      "سالروچ": 9692,
      "پسه": 9693,
      "کَّگ": 9694,
      "دوستانی": 9695,
      "گلاں": 9696,
      "دراجی": 9697,
      "گْوزان": 9698,
      "گواچن": 9699,
      "بِچار": 9700,
      "آزمانکک": 9701,
      "آزمانکاں": 9702,
      "جَم": 9703,
      "مولم": 9704,
      "پرومءِ": 9705,
      "ِیل": 9706,
      "مستی": 9707,
      "جنینی": 9708,
      "گَٹّ": 9709,
      "پارگ": 9710,
      "پارلمان": 9711,
      "دردءَ": 9712,
      "چَل": 9713,
      "سگگ": 9714,
      "میتگانی": 9715,
      "جاگہہ": 9716,
      "کوہے": 9717,
      "مسئ": 9718,
      "ھَست": 9719,
      "ھَوار": 9720,
      "پٹان": 9721,
      "رہا": 9722,
      "بُنجاہ": 9723,
      "بچارئے": 9724,
      "ھبرءَ": 9725,
      "سپرءَ": 9726,
      "سوبیں": 9727,
      "بادشاہءَ": 9728,
      "بادشاہءِ": 9729,
      "همائی": 9730,
      "دروشمیں": 9731,
      "سازءُ": 9732,
      "سازاں": 9733,
      "گپتگاں": 9734,
      "قیمت": 9735,
      "چراگانی": 9736,
      "ھبکہ": 9737,
      "پِرّ": 9738,
      "وٹس": 9739,
      "نورمحمد": 9740,
      "اثط": 9741,
      "افسر": 9742,
      "گردگ": 9743,
      "عاقل": 9744,
      "ڈولءَ": 9745,
      "ٹکٹ": 9746,
      "اسکولاں": 9747,
      "حرف": 9748,
      "نادراهی": 9749,
      "بالادءِ": 9750,
      "مکرانءِ": 9751,
      "ھشتاد": 9752,
      "بیگواہی": 9753,
      "تنقید": 9754,
      "ہُدا": 9755,
      "لرزگ": 9756,
      "دکانے": 9757,
      "هَـمـ": 9758,
      "گِیشتر": 9759,
      "گِیشّ": 9760,
      "طینی": 9761,
      "پترت": 9762,
      "غیب": 9763,
      "بَلُک": 9764,
      "العین": 9765,
      "آوانَ": 9766,
      "دَرور": 9767,
      "پردہ": 9768,
      "پنیر": 9769,
      "سُرینوک": 9770,
      "یعنی": 9771,
      "مزہبی": 9772,
      "وشھالیں": 9773,
      "پژدر": 9774,
      "سنگینی": 9775,
      "پوریاگ": 9776,
      "خاران": 9777,
      "مۆکل": 9778,
      "آگہی": 9779,
      "آیگءَ": 9780,
      "ڈائریکٹر": 9781,
      "نزینکی": 9782,
      "میوزیم": 9783,
      "سکریٹری": 9784,
      "مَارگی": 9785,
      "!”": 9786,
      ":*": 9787,
      "،.": 9788,
      "امنی": 9789,
      "جرہ": 9790,
      "خاں": 9791,
      "ذمت": 9792,
      "زباں": 9793,
      "زبرد": 9794,
      "سوک": 9795,
      "سمار": 9796,
      "سچکان": 9797,
      "صنی": 9798,
      "طَ": 9799,
      "طبی": 9800,
      "غفار": 9801,
      "فه": 9802,
      "فات": 9803,
      "فَر": 9804,
      "فاط": 9805,
      "كَ": 9806,
      "لہم": 9807,
      "نوان": 9808,
      "نکت": 9809,
      "همین": 9810,
      "ویں": 9811,
      "يم": 9812,
      "ُون": 9813,
      "ّد": 9814,
      "ٹَگ": 9815,
      "چانک": 9816,
      "ڈب": 9817,
      "ڈڑا": 9818,
      "کسر": 9819,
      "کھچ": 9820,
      "ںوں": 9821,
      "ھکم": 9822,
      "ھنوں": 9823,
      "یــ": 9824,
      "یاری": 9825,
      "ﭼﮧ": 9826,
      "ﻭﺭ": 9827,
      "انکار": 9828,
      "ءِسرءَ": 9829,
      "ارواه": 9830,
      "منوک": 9831,
      "راَت": 9832,
      "ندکارے": 9833,
      "گورو": 9834,
      "بلبل": 9835,
      "نگانی": 9836,
      "میسج": 9837,
      "میلادی": 9838,
      "ریات": 9839,
      "چیدگی": 9840,
      "کاران": 9841,
      "کارنت": 9842,
      "ایجن": 9843,
      "توانت": 9844,
      "توکی": 9845,
      "پہلوان": 9846,
      "درُ": 9847,
      "درمیان": 9848,
      "گیڑی": 9849,
      "سینز": 9850,
      "دوئ": 9851,
      "دوس": 9852,
      "دوچی": 9853,
      "اَتیں": 9854,
      "کُڈّ": 9855,
      "پیز": 9856,
      "لوڑی": 9857,
      "ساسار": 9858,
      "کید": 9859,
      "شیریں": 9860,
      "گُدانی": 9861,
      "اون": 9862,
      "ھرءَ": 9863,
      "ھیریں": 9864,
      "ھیبتان": 9865,
      "شازُل": 9866,
      "کرزیت": 9867,
      "بندئے": 9868,
      "پرچه": 9869,
      "گرئے": 9870,
      "مہروان": 9871,
      "بوب": 9872,
      "بُنزہ": 9873,
      "نامداری": 9874,
      "کمزور": 9875,
      "سوزمان": 9876,
      "سوچگ": 9877,
      "کشیں": 9878,
      "مُو": 9879,
      "مُبار": 9880,
      "جہت": 9881,
      "چکءَ": 9882,
      "پاھار": 9883,
      "شرط": 9884,
      "لوٹے": 9885,
      "لوٹنت": 9886,
      "کےءِ": 9887,
      "ایرجیگ": 9888,
      "شُدیگ": 9889,
      "ہین": 9890,
      "گِرد": 9891,
      "گِچین": 9892,
      "گِلّہ": 9893,
      "آزمانکی": 9894,
      "دپءِ": 9895,
      "اُس": 9896,
      "اُوں": 9897,
      "دَل": 9898,
      "نیائے": 9899,
      "سُس": 9900,
      "سُه": 9901,
      "سُتک": 9902,
      "زریت": 9903,
      "پَی": 9904,
      "پَند": 9905,
      "زائر": 9906,
      "کّاں": 9907,
      "جنگلی": 9908,
      "ٹرانس": 9909,
      "بِھ": 9910,
      "شمال": 9911,
      "گیشواری": 9912,
      "بالیں": 9913,
      "جهاد": 9914,
      "ماہل": 9915,
      "گَشت": 9916,
      "مھرے": 9917,
      "سمبھ": 9918,
      "پلگاریں": 9919,
      "پریشکا": 9920,
      "ورنایاں": 9921,
      "بنجاھی": 9922,
      "ھانُل": 9923,
      "شَور": 9924,
      "نَگی": 9925,
      "باتے": 9926,
      "زُبانانی": 9927,
      "گْوشتار": 9928,
      "بوھگی": 9929,
      "رسترانی": 9930,
      "کڑے": 9931,
      "شوھازکار": 9932,
      "انگریزانی": 9933,
      "پشکپتگ": 9934,
      "حقاں": 9935,
      "منّیت": 9936,
      "آرگءُ": 9937,
      "تُرسءَ": 9938,
      "بینجو": 9939,
      "مکھیں": 9940,
      "بستارءَ": 9941,
      "گوئشتی": 9942,
      "ماهل": 9943,
      "صطاں": 9944,
      "گوزگءَ": 9945,
      "تنکیں": 9946,
      "ٹَپ": 9947,
      "جھلانکی": 9948,
      "گاڈیءِ": 9949,
      "البط": 9950,
      "ڈارالعلوم": 9951,
      "تنیگا": 9952,
      "تسپ": 9953,
      "یورپءِ": 9954,
      "پجّہ": 9955,
      "میراس": 9956,
      "ںماذ": 9957,
      "اِسپیت": 9958,
      "ننگار": 9959,
      "کیفے": 9960,
      "نیاریت": 9961,
      "ﮐﻨﺖ": 9962,
      "چھبار": 9963,
      "رسینت": 9964,
      "گْوانک": 9965,
      "درگیتک": 9966,
      "پُشدر": 9967,
      "بُوہگ": 9968,
      "ﺑُﺖ": 9969,
      "سُپاھی": 9970,
      "صفحه": 9971,
      "بچیگ": 9972,
      "بیسیمہ": 9973,
      "عظیظ": 9974,
      "رَجانک": 9975,
      "میوزک": 9976,
      "ﻧﺎﻭﻝ": 9977,
      "،۔": 9978,
      "اڈے": 9979,
      "اشرپ": 9980,
      "بگا": 9981,
      "تبل": 9982,
      "تبد": 9983,
      "ثنت": 9984,
      "ثطاں": 9985,
      "جڑ": 9986,
      "جوھ": 9987,
      "خل": 9988,
      "رات": 9989,
      "زروان": 9990,
      "سدو": 9991,
      "سدگ": 9992,
      "سپری": 9993,
      "سنس": 9994,
      "سـیـ": 9995,
      "شھا": 9996,
      "صح": 9997,
      "عجب": 9998,
      "فہم": 9999,
      "لگا": 10000,
      "لپا": 10001,
      "مجاہد": 10002,
      "نکل": 10003,
      "ؤر": 10004,
      "ّتے": 10005,
      "ٹان": 10006,
      "ٹوھیں": 10007,
      "پست": 10008,
      "چں": 10009,
      "چئے": 10010,
      "چپّ": 10011,
      "ڈرے": 10012,
      "کَرّ": 10013,
      "گص": 10014,
      "ھچی": 10015,
      "ھلو": 10016,
      "‍ں": 10017,
      "ﺑﮯ": 10018,
      "ﺗﺮ": 10019,
      "ﻨﮕ": 10020,
      "ﻮﺭ": 10021,
      "مندگ": 10022,
      "منّو": 10023,
      "گوپی": 10024,
      "الوت": 10025,
      "البیرو": 10026,
      "بلکں": 10027,
      "رودین": 10028,
      "میانی": 10029,
      "ریچی": 10030,
      "باپار": 10031,
      "ناب": 10032,
      "سرما": 10033,
      "چینگ": 10034,
      "داشط": 10035,
      "بوتگوں": 10036,
      "واٹس": 10037,
      "درج": 10038,
      "درہ": 10039,
      "درنج": 10040,
      "درجگ": 10041,
      "دوش": 10042,
      "دوہزار": 10043,
      "چونی": 10044,
      "آئیارا": 10045,
      "جاورا": 10046,
      "پیسل": 10047,
      "کیمرہ": 10048,
      "شینک": 10049,
      "گُْ": 10050,
      "گُلائی": 10051,
      "گپا": 10052,
      "گپتیں": 10053,
      "دلدوستیں": 10054,
      "دگءِ": 10055,
      "کؤر": 10056,
      "بزدار": 10057,
      "زیم": 10058,
      "زیادہ": 10059,
      "مرگءَ": 10060,
      "بندانکی": 10061,
      "ڑاہ": 10062,
      "مونج": 10063,
      "نوشی": 10064,
      "گرءُ": 10065,
[...]
